{"version":"1.0","truncation":null,"padding":null,"added_tokens":[{"id":0,"special":true,"content":"<MSP>","single_word":false,"lstrip":false,"rstrip":false,"normalized":false},{"id":1,"special":true,"content":"<PSP>","single_word":false,"lstrip":false,"rstrip":false,"normalized":false}],"normalizer":null,"pre_tokenizer":{"type":"Whitespace"},"post_processor":null,"decoder":null,"model":{"type":"WordPiece","unk_token":"[UNK]","continuing_subword_prefix":"##","max_input_chars_per_word":100,"vocab":{".":0,"0":1,"1":2,"2":3,"3":4,"4":5,"5":6,"6":7,"7":8,"8":9,"9":10,"<":11,">":12,"M":13,"P":14,"S":15,"a":16,"b":17,"c":18,"d":19,"e":20,"f":21,"g":22,"h":23,"i":24,"j":25,"k":26,"l":27,"m":28,"n":29,"o":30,"p":31,"q":32,"r":33,"s":34,"t":35,"u":36,"v":37,"w":38,"x":39,"y":40,"z":41,"##e":42,"##n":43,"##r":44,"##m":45,"##i":46,"##a":47,"##l":48,"##d":49,"##p":50,"##o":51,"##u":52,"##t":53,"##s":54,"##c":55,"##y":56,"##f":57,"##g":58,"##h":59,"##k":60,"##b":61,"##w":62,"##v":63,"##q":64,"##x":65,"##z":66,"##j":67,"##8":68,"##7":69,"##4":70,"##0":71,"##6":72,"##5":73,"##2":74,"##1":75,"##S":76,"##P":77,"##3":78,"##9":79,"##SP":80,"MSP":81,"PSP":82,"##ar":83,"##er":84,"##on":85,"##at":86,"##arg":87,"##es":88,"jarg":89,"##in":90,"##et":91,"##or":92,"##en":93,"##le":94,"##ion":95,"##al":96,"in":97,"##it":98,"##an":99,"##ct":100,"##ed":101,"con":102,"##st":103,"re":104,"##od":105,"##re":106,"##am":107,"##ro":108,"##ent":109,"##ate":110,"##ut":111,"st":112,"bt":113,"##ing":114,"##ce":115,"##as":116,"co":117,"##ex":118,"is":119,"##pe":120,"##ad":121,"##ra":122,"##ri":123,"##ul":124,"##ck":125,"##il":126,"##ame":127,"de":128,"##ig":129,"##ch":130,"to":131,"##ation":132,"ex":133,"pro":134,"##ess":135,"##ur":136,"##is":137,"en":138,"##ve":139,"cl":140,"##ag":141,"##ter":142,"##ab":143,"cont":144,"ty":145,"ad":146,"res":147,"##mp":148,"val":149,"ch":150,"name":151,"ar":152,"##id":153,"##ot":154,"##est":155,"type":156,"##ata":157,"lo":158,"##ol":159,"##ue":160,"##pt":161,"add":162,"##ic":163,"##un":164,"##im":165,"##se":166,"ma":167,"##ode":168,"##ist":169,"set":170,"##ext":171,"fi":172,"par":173,"data":174,"get":175,"##int":176,"##iz":177,"an":178,"##able":179,"##pp":180,"##ew":181,"##ult":182,"##ver":183,"bu":184,"##and":185,"##lo":186,"##ment":187,"##ction":188,"cre":189,"so":190,"create":191,"ke":192,"##if":193,"po":194,"for":195,"##age":196,"met":197,"value":198,"##el":199,"on":200,"key":201,"##ass":202,"##act":203,"sh":204,"##ody":205,"##ers":206,"##um":207,"do":208,"body":209,"##ff":210,"##qu":211,"new":212,"col":213,"const":214,"##ack":215,"context":216,"pat":217,"##ect":218,"class":219,"##ild":220,"##ert":221,"su":222,"id":223,"un":224,"ind":225,"##ive":226,"meth":227,"method":228,"##ind":229,"##ize":230,"al":231,"comp":232,"##urce":233,"##ption":234,"index":235,"##ener":236,"##em":237,"##ang":238,"ca":239,"##th":240,"conf":241,"##put":242,"##ay":243,"up":244,"##ith":245,"##end":246,"at":247,"tr":248,"build":249,"requ":250,"se":251,"##ir":252,"##let":253,"hand":254,"list":255,"##all":256,"config":257,"##ort":258,"inf":259,"str":260,"file":261,"arg":262,"##cess":263,"ob":264,"##rom":265,"from":266,"as":267,"by":268,"lin":269,"path":270,"out":271,"inter":272,"with":273,"info":274,"##ory":275,"##ject":276,"##ans":277,"constra":278,"th":279,"constraint":280,"##ray":281,"array":282,"##ial":283,"tim":284,"##eck":285,"##rit":286,"has":287,"##us":288,"read":289,"mess":290,"att":291,"sw":292,"trans":293,"##ft":294,"check":295,"request":296,"##set":297,"##up":298,"star":299,"writ":300,"##fa":301,"be":302,"message":303,"##ip":304,"##ase":305,"he":306,"ser":307,"sp":308,"rem":309,"loc":310,"##ow":311,"##ity":312,"app":313,"##atch":314,"off":315,"##ure":316,"upd":317,"prop":318,"##ition":319,"init":320,"string":321,"##ator":322,"soft":323,"##lete":324,"##arget":325,"pre":326,"dis":327,"target":328,"##tr":329,"##rib":330,"result":331,"source":332,"call":333,"ev":334,"param":335,"and":336,"er":337,"reg":338,"##ub":339,"##ies":340,"##ute":341,"fil":342,"##orm":343,"##ec":344,"start":345,"map":346,"propert":347,"coll":348,"pr":349,"time":350,"update":351,"##ule":352,"offset":353,"sc":354,"swig":355,"##ative":356,"gener":357,"##ire":358,"test":359,"err":360,"byt":361,"##ly":362,"node":363,"##unt":364,"mult":365,"cach":366,"dec":367,"rec":368,"object":369,"load":370,"ele":371,"parse":372,"pl":373,"code":374,"des":375,"##eld":376,"##back":377,"size":378,"qu":379,"write":380,"delete":381,"##und":382,"op":383,"##ape":384,"input":385,"us":386,"pos":387,"##ove":388,"##ain":389,"field":390,"error":391,"##ress":392,"exec":393,"man":394,"##ap":395,"##nal":396,"num":397,"tri":398,"event":399,"##ast":400,"imp":401,"element":402,"##ler":403,"##ib":404,"##ision":405,"##ust":406,"##otation":407,"gro":408,"process":409,"find":410,"##ream":411,"action":412,"##ant":413,"attrib":414,"fr":415,"exp":416,"reso":417,"shape":418,"sub":419,"desc":420,"##vi":421,"of":422,"regist":423,"state":424,"cache":425,"ann":426,"handle":427,"not":428,"end":429,"##om":430,"group":431,"com":432,"native":433,"wor":434,"stream":435,"head":436,"ref":437,"##ru":438,"count":439,"##ffer":440,"collision":441,"resol":442,"fact":443,"inv":444,"##ld":445,"enc":446,"le":447,"output":448,"remove":449,"##irect":450,"or":451,"##ary":452,"defa":453,"bean":454,"default":455,"len":456,"int":457,"ext":458,"bo":459,"##ke":460,"link":461,"##ail":462,"buffer":463,"ac":464,"inst":465,"paramet":466,"##ace":467,"##ix":468,"rep":469,"valid":470,"##vid":471,"rule":472,"vis":473,"direct":474,"listener":475,"fl":476,"sy":477,"##ull":478,"##gin":479,"conver":480,"annotation":481,"frame":482,"##read":483,"##ud":484,"contact":485,"internal":486,"form":487,"##form":488,"var":489,"option":490,"doub":491,"ur":492,"##imit":493,"max":494,"##igh":495,"exce":496,"point":497,"double":498,"provid":499,"match":500,"stat":501,"url":502,"chang":503,"builder":504,"dra":505,"mem":506,"##ile":507,"##ance":508,"factory":509,"vi":510,"handler":511,"cur":512,"enable":513,"local":514,"ro":515,"##ient":516,"multi":517,"exception":518,"##gth":519,"if":520,"dep":521,"##os":522,"sol":523,"##uration":524,"limit":525,"resource":526,"##der":527,"flo":528,"##ber":529,"all":530,"callback":531,"thread":532,"##vice":533,"jo":534,"##esh":535,"##ore":536,"##amp":537,"line":538,"length":539,"view":540,"ins":541,"text":542,"##iv":543,"##lect":544,"char":545,"filter":546,"bytes":547,"descri":548,"comm":549,"pack":550,"cle":551,"im":552,"##try":553,"initial":554,"##wn":555,"##az":556,"format":557,"##lock":558,"##ces":559,"log":560,"draw":561,"##cl":562,"args":563,"oper":564,"visit":565,"content":566,"ret":567,"run":568,"entry":569,"supp":570,"##ask":571,"##ence":572,"##lic":573,"disp":574,"triang":575,"##ine":576,"##ized":577,"##ight":578,"##ard":579,"##edi":580,"##ark":581,"execut":582,"per":583,"##ord":584,"property":585,"##av":586,"block":587,"##ated":588,"env":589,"float":590,"pref":591,"properties":592,"position":593,"it":594,"##ry":595,"ne":596,"allo":597,"##sion":598,"##ign":599,"attribute":600,"bind":601,"mapp":602,"solver":603,"triangle":604,"##ifi":605,"typ":606,"mode":607,"conn":608,"curr":609,"##out":610,"##ify":611,"item":612,"claz":613,"clazz":614,"tra":615,"pri":616,"##ide":617,"##ale":618,"generic":619,"invo":620,"##ames":621,"##tern":622,"act":623,"medi":624,"##ac":625,"##ues":626,"service":627,"det":628,"resolve":629,"parameter":630,"over":631,"##enc":632,"##lay":633,"transform":634,"image":635,"##umn":636,"column":637,"use":638,"configuration":639,"register":640,"ptr":641,"options":642,"next":643,"world":644,"provider":645,"conv":646,"current":647,"pattern":648,"values":649,"we":650,"##ann":651,"vari":652,"dir":653,"bit":654,"art":655,"##ty":656,"resp":657,"##are":658,"media":659,"respon":660,"##ep":661,"##load":662,"root":663,"clear":664,"##ge":665,"uri":666,"##ree":667,"address":668,"manag":669,"mod":670,"##ose":671,"##ifact":672,"artifact":673,"task":674,"operator":675,"refer":676,"convex":677,"user":678,"fun":679,"convert":680,"##be":681,"enabled":682,"##yn":683,"cop":684,"response":685,"cust":686,"##ments":687,"support":688,"custom":689,"may":690,"##ring":691,"pa":692,"def":693,"bv":694,"##pect":695,"header":696,"lab":697,"mot":698,"##ph":699,"##ken":700,"bvh":701,"##sc":702,"##face":703,"sk":704,"copy":705,"label":706,"parent":707,"wh":708,"##uld":709,"command":710,"names":711,"constru":712,"min":713,"##ould":714,"##adata":715,"token":716,"metadata":717,"byte":718,"prefix":719,"jav":720,"base":721,"null":722,"should":723,"apply":724,"extra":725,"##one":726,"spring":727,"##cast":728,"##emp":729,"##ific":730,"sess":731,"##mit":732,"##op":733,"vers":734,"maybe":735,"session":736,"version":737,"flag":738,"append":739,"sch":740,"manif":741,"aut":742,"##rst":743,"first":744,"dof":745,"generate":746,"number":747,"tag":748,"encode":749,"spe":750,"##ong":751,"##ations":752,"ang":753,"##ection":754,"manager":755,"mat":756,"##bu":757,"##ors":758,"package":759,"validate":760,"no":761,"can":762,"##ser":763,"jar":764,"##ings":765,"##clud":766,"##ick":767,"##ach":768,"##old":769,"record":770,"part":771,"select":772,"##ipient":773,"recipient":774,"dest":775,"ray":776,"##les":777,"chann":778,"channel":779,"##rid":780,"types":781,"cons":782,"##utes":783,"directory":784,"mark":785,"table":786,"##urces":787,"sec":788,"ms":789,"##rol":790,"status":791,"##to":792,"##ension":793,"files":794,"change":795,"ent":796,"make":797,"##ink":798,"interface":799,"quer":800,"child":801,"headers":802,"java":803,"prog":804,"contain":805,"##ound":806,"emp":807,"##ml":808,"##li":809,"##erm":810,"##lection":811,"ass":812,"access":813,"##son":814,"##row":815,"motor":816,"last":817,"##ange":818,"##ush":819,"print":820,"cal":821,"norm":822,"hash":823,"obj":824,"allow":825,"empty":826,"##ok":827,"##sp":828,"ed":829,"old":830,"temp":831,"decode":832,"pair":833,"spec":834,"tool":835,"##ender":836,"query":837,"##vel":838,"construct":839,"play":840,"##imp":841,"long":842,"sa":843,"vert":844,"##io":845,"argu":846,"attributes":847,"bound":848,"prox":849,"short":850,"changed":851,"description":852,"##ish":853,"##ptor":854,"##ired":855,"ct":856,"fin":857,"gim":858,"row":859,"sing":860,"ver":861,"depend":862,"insn":863,"rig":864,"post":865,"rigid":866,"ht":867,"mo":868,"##ger":869,"syn":870,"lib":871,"ve":872,"##ote":873,"##own":874,"display":875,"non":876,"##ector":877,"ho":878,"mth":879,"need":880,"iter":881,"pool":882,"connection":883,"serial":884,"reference":885,"track":886,"normal":887,"mesh":888,"##urn":889,"equ":890,"ori":891,"wra":892,"consum":893,"av":894,"pol":895,"##ible":896,"encod":897,"level":898,"proxy":899,"oth":900,"##use":901,"proto":902,"reset":903,"af":904,"##mis":905,"##ared":906,"##idth":907,"##ics":908,"fail":909,"tree":910,"##rc":911,"extract":912,"project":913,"down":914,"after":915,"db":916,"fra":917,"render":918,"##ueue":919,"height":920,"registry":921,"function":922,"simp":923,"inc":924,"##ateg":925,"##ular":926,"server":927,"ab":928,"##resh":929,"##map":930,"initialize":931,"show":932,"instance":933,"repl":934,"src":935,"client":936,"other":937,"##tp":938,"compute":939,"width":940,"close":941,"throw":942,"return":943,"ctx":944,"gl":945,"sl":946,"##ulate":947,"debu":948,"decl":949,"calc":950,"debug":951,"put":952,"##action":953,"ident":954,"work":955,"parameters":956,"mapping":957,"##cket":958,"http":959,"##abb":960,"insert":961,"descriptor":962,"rele":963,"dex":964,"defin":965,"ax":966,"##pper":967,"unit":968,"replace":969,"sign":970,"joint":971,"##late":972,"##ices":973,"methods":974,"extension":975,"web":976,"dependenc":977,"libr":978,"addr":979,"single":980,"simple":981,"aabb":982,"back":983,"variable":984,"##ime":985,"order":986,"instru":987,"low":988,"bitmap":989,"skip":990,"stack":991,"disc":992,"scale":993,"includ":994,"loader":995,"member":996,"##po":997,"date":998,"cap":999,"fe":1000,"json":1001,"##cept":1002,"control":1003,"mer":1004,"samp":1005,"##gment":1006,"##older":1007,"force":1008,"##iled":1009,"execution":1010,"angular":1011,"##ek":1012,"##arch":1013,"timeout":1014,"sched":1015,"origin":1016,"own":1017,"##rix":1018,"prof":1019,"##ni":1020,"clust":1021,"activ":1022,"equal":1023,"axis":1024,"pub":1025,"##loc":1026,"job":1027,"linear":1028,"##ait":1029,"try":1030,"plu":1031,"bro":1032,"ra":1033,"alg":1034,"attach":1035,"location":1036,"quant":1037,"static":1038,"release":1039,"plugin":1040,"send":1041,"##ification":1042,"constructor":1043,"keys":1044,"collect":1045,"upcast":1046,"configure":1047,"ut":1048,"resolver":1049,"alloc":1050,"cance":1051,"queue":1052,"range":1053,"##ill":1054,"clos":1055,"dyn":1056,"required":1057,"##ables":1058,"fix":1059,"remote":1060,"notify":1061,"dispatch":1062,"##ature":1063,"rest":1064,"uns":1065,"writer":1066,"report":1067,"host":1068,"instruction":1069,"cc":1070,"dig":1071,"##odu":1072,"sett":1073,"##ization":1074,"##iron":1075,"environ":1076,"invoc":1077,"raw":1078,"##ite":1079,"##ulse":1080,"##bers":1081,"rel":1082,"matrix":1083,"dynam":1084,"mon":1085,"prep":1086,"resources":1087,"aud":1088,"opt":1089,"##idate":1090,"##name":1091,"##per":1092,"transaction":1093,"##ries":1094,"##ithm":1095,"produ":1096,"deps":1097,"manifest":1098,"only":1099,"classes":1100,"##point":1101,"vector":1102,"##itive":1103,"real":1104,"constant":1105,"impulse":1106,"accept":1107,"director":1108,"consumer":1109,"cancel":1110,"##orithm":1111,"top":1112,"reader":1113,"expand":1114,"executor":1115,"definition":1116,"cluster":1117,"algorithm":1118,"exist":1119,"jni":1120,"sty":1121,"buf":1122,"attr":1123,"applic":1124,"memory":1125,"audio":1126,"push":1127,"aspect":1128,"locale":1129,"overrid":1130,"##mary":1131,"##gn":1132,"##ified":1133,"pay":1134,"box":1135,"##ifier":1136,"ce":1137,"##ms":1138,"##ailed":1139,"##ous":1140,"asyn":1141,"impl":1142,"subsc":1143,"flags":1144,"quantized":1145,"##izer":1146,"suc":1147,"pres":1148,"execute":1149,"ign":1150,"##ron":1151,"##etch":1152,"##ailable":1153,"msg":1154,"##ner":1155,"rece":1156,"disable":1157,"annotations":1158,"entries":1159,"veloc":1160,"##vt":1161,"##ere":1162,"look":1163,"cast":1164,"fd":1165,"##lark":1166,"##ual":1167,"##ond":1168,"stri":1169,"lock":1170,"starlark":1171,"##chain":1172,"##itional":1173,"fields":1174,"toolchain":1175,"ph":1176,"##fe":1177,"##led":1178,"color":1179,"cause":1180,"artifacts":1181,"sample":1182,"cand":1183,"##ak":1184,"##ates":1185,"anim":1186,"##iff":1187,"complete":1188,"##ending":1189,"endpoint":1190,"connect":1191,"profile":1192,"environment":1193,"async":1194,"cent":1195,"invoke":1196,"calculate":1197,"library":1198,"sort":1199,"##lit":1200,"inputs":1201,"wind":1202,"expect":1203,"##ider":1204,"search":1205,"##amping":1206,"determ":1207,"auth":1208,"success":1209,"patch":1210,"params":1211,"region":1212,"open":1213,"binding":1214,"template":1215,"duration":1216,"##cer":1217,"##lob":1218,"finish":1219,"full":1220,"pad":1221,"##ear":1222,"socket":1223,"doc":1224,"manifold":1225,"failure":1226,"dbvt":1227,"velocity":1228,"window":1229,"##stem":1230,"collection":1231,"arguments":1232,"broad":1233,"gra":1234,"wait":1235,"##cle":1236,"##erial":1237,"##pped":1238,"vertex":1239,"invocation":1240,"application":1241,"determine":1242,"##onent":1243,"del":1244,"mock":1245,"merge":1246,"settings":1247,"prepare":1248,"em":1249,"##ave":1250,"##que":1251,"pop":1252,"serv":1253,"split":1254,"system":1255,"members":1256,"contains":1257,"available":1258,"dat":1259,"lay":1260,"##line":1261,"##omp":1262,"##sing":1263,"##orter":1264,"configur":1265,"bef":1266,"multip":1267,"progress":1268,"activity":1269,"but":1270,"mis":1271,"##art":1272,"##ork":1273,"##unk":1274,"complet":1275,"charact":1276,"verify":1277,"##ration":1278,"##rement":1279,"click":1280,"##pping":1281,"##ression":1282,"trim":1283,"typed":1284,"variables":1285,"include":1286,"style":1287,"present":1288,"pass":1289,"##work":1290,"##ages":1291,"##ffix":1292,"strateg":1293,"pred":1294,"inval":1295,"before":1296,"damping":1297,"ss":1298,"supports":1299,"download":1300,"lookup":1301,"failed":1302,"##ript":1303,"overl":1304,"##iod":1305,"##gg":1306,"##ont":1307,"visitor":1308,"period":1309,"##phase":1310,"broadphase":1311,"same":1312,"##ias":1313,"model":1314,"port":1315,"##ton":1316,"##odes":1317,"stop":1318,"component":1319,"elements":1320,"rad":1321,"parser":1322,"sequ":1323,"converter":1324,"button":1325,"cert":1326,"red":1327,"rotation":1328,"decod":1329,"drawable":1330,"ap":1331,"dist":1332,"hing":1333,"##inter":1334,"additional":1335,"codec":1336,"clean":1337,"hinge":1338,"bas":1339,"pending":1340,"##red":1341,"##ved":1342,"uni":1343,"module":1344,"auto":1345,"vide":1346,"##eel":1347,"##arator":1348,"engin":1349,"chunk":1350,"paths":1351,"syml":1352,"schem":1353,"video":1354,"symlink":1355,"bin":1356,"day":1357,"fut":1358,"fall":1359,"previ":1360,"errors":1361,"impact":1362,"leg":1363,"wheel":1364,"dependency":1365,"tw":1366,"##bo":1367,"primit":1368,"engine":1369,"glob":1370,"sq":1371,"##nown":1372,"##ump":1373,"##sh":1374,"meta":1375,"suffix":1376,"##acity":1377,"supported":1378,"assert":1379,"fragment":1380,"center":1381,"holder":1382,"net":1383,"##verse":1384,"obser":1385,"expected":1386,"##ole":1387,"inject":1388,"req":1389,"main":1390,"eval":1391,"func":1392,"second":1393,"encoded":1394,"zip":1395,"##uid":1396,"##col":1397,"cond":1398,"##izers":1399,"lower":1400,"candidate":1401,"fallback":1402,"case":1403,"cone":1404,"##ules":1405,"arch":1406,"loop":1407,"##ical":1408,"one":1409,"shared":1410,"alias":1411,"compare":1412,"primary":1413,"capacity":1414,"owner":1415,"dispatcher":1416,"primitive":1417,"##ta":1418,"delay":1419,"expression":1420,"controller":1421,"producer":1422,"di":1423,"fetch":1424,"##ename":1425,"##ash":1426,"##low":1427,"keep":1428,"inte":1429,"##licit":1430,"are":1431,"hel":1432,"upper":1433,"uuid":1434,"thresh":1435,"assign":1436,"edge":1437,"character":1438,"threshold":1439,"war":1440,"##ycle":1441,"##ane":1442,"##reg":1443,"store":1444,"cls":1445,"targets":1446,"edit":1447,"sync":1448,"needs":1449,"slider":1450,"ignore":1451,"pe":1452,"right":1453,"xml":1454,"##sor":1455,"conc":1456,"##ution":1457,"##ric":1458,"any":1459,"sep":1460,"##cessary":1461,"refresh":1462,"##rypt":1463,"argument":1464,"attachment":1465,"relative":1466,"move":1467,"##down":1468,"##stra":1469,"sources":1470,"selection":1471,"transitive":1472,"##ribe":1473,"wrap":1474,"schedule":1475,"esc":1476,"nest":1477,"nodes":1478,"##ake":1479,"##ility":1480,"promis":1481,"without":1482,"factor":1483,"high":1484,"##ning":1485,"##word":1486,"exit":1487,"anch":1488,"qual":1489,"intent":1490,"##illis":1491,"strategy":1492,"future":1493,"millis":1494,"##sure":1495,"ensure":1496,"compound":1497,"##apter":1498,"increment":1499,"radi":1500,"bl":1501,"hull":1502,"mime":1503,"##ential":1504,"timest":1505,"join":1506,"necessary":1507,"protocol":1508,"realm":1509,"me":1510,"term":1511,"entity":1512,"save":1513,"override":1514,"padd":1515,"sql":1516,"timestamp":1517,"mask":1518,"##apt":1519,"##sed":1520,"##iles":1521,"##chron":1522,"adapter":1523,"compil":1524,"subt":1525,"allowed":1526,"original":1527,"datab":1528,"##ally":1529,"script":1530,"import":1531,"processor":1532,"statement":1533,"detail":1534,"sequence":1535,"##ram":1536,"##apping":1537,"##ater":1538,"exter":1539,"shut":1540,"promise":1541,"padding":1542,"external":1543,"sd":1544,"##ian":1545,"##ling":1546,"##pr":1547,"##ero":1548,"##ath":1549,"stor":1550,"##ell":1551,"importer":1552,"actions":1553,"dst":1554,"diff":1555,"pers":1556,"##oc":1557,"##ount":1558,"##ker":1559,"exclud":1560,"##pth":1561,"transl":1562,"scan":1563,"items":1564,"active":1565,"raycast":1566,"safe":1567,"declar":1568,"dynamics":1569,"optim":1570,"anchor":1571,"fri":1572,"lit":1573,"##atform":1574,"##icate":1575,"platform":1576,"groups":1577,"matches":1578,"##osit":1579,"##acy":1580,"##mission":1581,"month":1582,"emit":1583,"lang":1584,"sel":1585,"##lish":1586,"##pace":1587,"depth":1588,"##icle":1589,"##rupt":1590,"boot":1591,"round":1592,"mapper":1593,"closest":1594,"overlapping":1595,"legacy":1596,"radius":1597,"hit":1598,"year":1599,"zone":1600,"##leg":1601,"chain":1602,"super":1603,"collide":1604,"plane":1605,"flush":1606,"##clus":1607,"permission":1608,"material":1609,"##space":1610,"missing":1611,"clicked":1612,"reas":1613,"step":1614,"enum":1615,"left":1616,"network":1617,"reason":1618,"pk":1619,"##ination":1620,"adapt":1621,"cursor":1622,"container":1623,"bounds":1624,"synchron":1625,"feature":1626,"graph":1627,"database":1628,"persist":1629,"rs":1630,"##ness":1631,"reposit":1632,"##ived":1633,"public":1634,"digest":1635,"predicate":1636,"decoder":1637,"sum":1638,"##og":1639,"adj":1640,"unm":1641,"acc":1642,"common":1643,"playback":1644,"final":1645,"utf":1646,"strip":1647,"invalid":1648,"binary":1649,"shutdown":1650,"self":1651,"batch":1652,"rsp":1653,"##ret":1654,"##lf":1655,"device":1656,"##imum":1657,"workspace":1658,"equals":1659,"servlet":1660,"configured":1661,"repository":1662,"cor":1663,"zero":1664,"isl":1665,"##uler":1666,"##ures":1667,"adv":1668,"metric":1669,"require":1670,"explicit":1671,"iterator":1672,"ssl":1673,"el":1674,"##ational":1675,"fire":1676,"pointer":1677,"disk":1678,"results":1679,"notification":1680,"selected":1681,"aw":1682,"bh":1683,"categ":1684,"hex":1685,"##itle":1686,"exch":1687,"ids":1688,"begin":1689,"retri":1690,"serialize":1691,"wrapper":1692,"identity":1693,"publish":1694,"nested":1695,"jse":1696,"sb":1697,"##val":1698,"##aly":1699,"##ume":1700,"dom":1701,"scrol":1702,"cached":1703,"providers":1704,"signature":1705,"friction":1706,"island":1707,"jself":1708,"dump":1709,"sig":1710,"##over":1711,"stub":1712,"indices":1713,"compile":1714,"asc":1715,"space":1716,"used":1717,"comb":1718,"chars":1719,"veh":1720,"identifier":1721,"dependencies":1722,"password":1723,"global":1724,"exchange":1725,"dup":1726,"##bound":1727,"analy":1728,"mappings":1729,"fixed":1730,"digit":1731,"delta":1732,"condition":1733,"page":1734,"sem":1735,"##list":1736,"##ope":1737,"##uch":1738,"##ority":1739,"##round":1740,"listen":1741,"sph":1742,"span":1743,"scope":1744,"patterns":1745,"poly":1746,"payload":1747,"previous":1748,"evalu":1749,"vehicle":1750,"bul":1751,"##path":1752,"stick":1753,"matching":1754,"imm":1755,"selector":1756,"abs":1757,"twist":1758,"integer":1759,"free":1760,"##ward":1761,"inner":1762,"started":1763,"annot":1764,"boole":1765,"angle":1766,"##lier":1767,"vertices":1768,"distance":1769,"scroll":1770,"sphere":1771,"stand":1772,"asset":1773,"install":1774,"actual":1775,"##ency":1776,"customizers":1777,"storage":1778,"##itch":1779,"matcher":1780,"motion":1781,"construction":1782,"needed":1783,"docu":1784,"details":1785,"ip":1786,"nan":1787,"rot":1788,"title":1789,"##mb":1790,"swe":1791,"points":1792,"destination":1793,"polic":1794,"dynamic":1795,"adjust":1796,"boolean":1797,"gen":1798,"##ux":1799,"##ating":1800,"##roy":1801,"##ade":1802,"##inder":1803,"scr":1804,"destroy":1805,"retrie":1806,"mass":1807,"##ob":1808,"##ens":1809,"upload":1810,"scal":1811,"logger":1812,"##igned":1813,"binder":1814,"when":1815,"##lict":1816,"rotational":1817,"##code":1818,"##urs":1819,"conflict":1820,"place":1821,"outputs":1822,"operation":1823,"program":1824,"encoding":1825,"util":1826,"layout":1827,"peek":1828,"langu":1829,"document":1830,"pin":1831,"rol":1832,"##uard":1833,"##known":1834,"##ister":1835,"unknown":1836,"comparator":1837,"word":1838,"solve":1839,"animation":1840,"translational":1841,"metrics":1842,"category":1843,"sweep":1844,"nam":1845,"##gger":1846,"##wer":1847,"##eral":1848,"lines":1849,"spa":1850,"generated":1851,"using":1852,"trigger":1853,"charset":1854,"priv":1855,"##enced":1856,"username":1857,"normalize":1858,"simplex":1859,"scheduler":1860,"hint":1861,"mig":1862,"more":1863,"sim":1864,"##ced":1865,"##ground":1866,"##aries":1867,"##ros":1868,"interrupt":1869,"##used":1870,"ready":1871,"##antics":1872,"links":1873,"flat":1874,"throwable":1875,"unique":1876,"schema":1877,"observer":1878,"semantics":1879,"listeners":1880,"policy":1881,"am":1882,"br":1883,"##cent":1884,"##fer":1885,"##order":1886,"shad":1887,"idx":1888,"switch":1889,"transition":1890,"retry":1891,"runn":1892,"labels":1893,"jars":1894,"standard":1895,"language":1896,"cf":1897,"pix":1898,"##ug":1899,"##con":1900,"##unch":1901,"loading":1902,"comment":1903,"texture":1904,"exists":1905,"asci":1906,"cred":1907,"fast":1908,"go":1909,"runt":1910,"sm":1911,"##sis":1912,"##argin":1913,"##utable":1914,"##eline":1915,"##ibility":1916,"expr":1917,"into":1918,"executable":1919,"completed":1920,"escape":1921,"analysis":1922,"private":1923,"rb":1924,"##ren":1925,"##gments":1926,"##lement":1927,"##rop":1928,"tot":1929,"unch":1930,"fill":1931,"multib":1932,"extend":1933,"visible":1934,"##class":1935,"referenced":1936,"sky":1937,"sorted":1938,"compilation":1939,"optimized":1940,"literal":1941,"bot":1942,"cell":1943,"ep":1944,"rate":1945,"export":1946,"registration":1947,"provide":1948,"supplier":1949,"prefer":1950,"priority":1951,"bits":1952,"namespace":1953,"renderer":1954,"recei":1955,"pkg":1956,"signal":1957,"duplic":1958,"bar":1959,"hide":1960,"jd":1961,"la":1962,"rand":1963,"##port":1964,"deleg":1965,"##imal":1966,"segment":1967,"perform":1968,"specific":1969,"finished":1970,"bullet":1971,"annotated":1972,"nanos":1973,"runnable":1974,"runtime":1975,"sur":1976,"##roid":1977,"exclus":1978,"compress":1979,"transfer":1980,"##faces":1981,"logg":1982,"trace":1983,"monit":1984,"directories":1985,"existing":1986,"payment":1987,"declaration":1988,"spawn":1989,"ascii":1990,"total":1991,"multibody":1992,"cs":1993,"face":1994,"found":1995,"margin":1996,"rat":1997,"##rate":1998,"##files":1999,"##anch":2000,"react":2001,"cook":2002,"##ulation":2003,"clo":2004,"susp":2005,"seek":2006,"filename":2007,"##empt":2008,"canon":2009,"proguard":2010,"objc":2011,"unsigned":2012,"phase":2013,"apk":2014,"archive":2015,"branch":2016,"credential":2017,"launch":2018,"ratio":2019,"##lers":2020,"##ble":2021,"##reen":2022,"##reak":2023,"resize":2024,"remo":2025,"describe":2026,"instant":2027,"week":2028,"tasks":2029,"player":2030,"declared":2031,"disabled":2032,"advis":2033,"bund":2034,"dim":2035,"dial":2036,"##bed":2037,"##jection":2038,"##itution":2039,"touch":2040,"##urity":2041,"##idd":2042,"unreg":2043,"compat":2044,"infos":2045,"this":2046,"constraints":2047,"contents":2048,"retain":2049,"percent":2050,"blocks":2051,"neg":2052,"security":2053,"multiple":2054,"break":2055,"cr":2056,"cir":2057,"rules":2058,"tx":2059,"##ful":2060,"##her":2061,"##ions":2062,"rect":2063,"clone":2064,"forward":2065,"##ires":2066,"messages":2067,"submit":2068,"conversion":2069,"optional":2070,"managed":2071,"children":2072,"abstra":2073,"libraries":2074,"retrieve":2075,"unregister":2076,"cp":2077,"catch":2078,"hi":2079,"lif":2080,"##af":2081,"##ities":2082,"rew":2083,"strid":2084,"recurs":2085,"poss":2086,"##anted":2087,"contacts":2088,"modules":2089,"feed":2090,"received":2091,"##board":2092,"persistent":2093,"random":2094,"delegate":2095,"abstract":2096,"recursive":2097,"der":2098,"ful":2099,"lat":2100,"##ted":2101,"##atar":2102,"reverse":2103,"indexed":2104,"interfaces":2105,"usage":2106,"events":2107,"convers":2108,"blocking":2109,"avatar":2110,"subscrib":2111,"api":2112,"editor":2113,"sticker":2114,"dialog":2115,"dot":2116,"hud":2117,"##ie":2118,"##oi":2119,"##ten":2120,"##tom":2121,"##hed":2122,"##vas":2123,"##jk":2124,"##arsh":2125,"##ined":2126,"cli":2127,"unp":2128,"comput":2129,"section":2130,"handlers":2131,"requested":2132,"android":2133,"collap":2134,"encrypt":2135,"runfiles":2136,"weight":2137,"canvas":2138,"extensions":2139,"closed":2140,"completion":2141,"help":2142,"helper":2143,"warning":2144,"separator":2145,"termin":2146,"sdf":2147,"bootstra":2148,"placeh":2149,"bottom":2150,"canonical":2151,"cycle":2152,"sent":2153,"sms":2154,"##ia":2155,"##afe":2156,"##atic":2157,"##entation":2158,"coun":2159,"delet":2160,"ans":2161,"classpath":2162,"decimal":2163,"symb":2164,"commit":2165,"packet":2166,"##ifiers":2167,"unsafe":2168,"embed":2169,"domain":2170,"digits":2171,"pixel":2172,"uncheck":2173,"symbol":2174,"embedd":2175,"dri":2176,"done":2177,"foc":2178,"gjk":2179,"hard":2180,"jac":2181,"now":2182,"pi":2183,"vol":2184,"##alth":2185,"health":2186,"discover":2187,"authent":2188,"assignment":2189,"immutable":2190,"duplicate":2191,"bootstrap":2192,"unchecked":2193,"embedded":2194,"agg":2195,"big":2196,"kin":2197,"known":2198,"was":2199,"##res":2200,"##cp":2201,"##gr":2202,"##bd":2203,"##alle":2204,"stage":2205,"paralle":2206,"##verage":2207,"meter":2208,"swap":2209,"erp":2210,"numer":2211,"note":2212,"vars":2213,"threads":2214,"customize":2215,"##lied":2216,"verification":2217,"fragments":2218,"allocator":2219,"redu":2220,"separ":2221,"scratch":2222,"cfm":2223,"bundle":2224,"brid":2225,"md":2226,"togg":2227,"prot":2228,"##olation":2229,"anc":2230,"pose":2231,"##umb":2232,"unt":2233,"capt":2234,"trust":2235,"interse":2236,"##irection":2237,"quote":2238,"acqu":2239,"invoker":2240,"modify":2241,"customizer":2242,"iterable":2243,"poll":2244,"replacement":2245,"monitor":2246,"fully":2247,"parallel":2248,"icon":2249,"kind":2250,"mut":2251,"mpr":2252,"tor":2253,"tab":2254,"##min":2255,"##ost":2256,"##atial":2257,"##ites":2258,"alph":2259,"timeline":2260,"##rite":2261,"spatial":2262,"screen":2263,"urls":2264,"exceptions":2265,"initializer":2266,"registered":2267,"minimum":2268,"##buffer":2269,"iterations":2270,"strict":2271,"##box":2272,"rotate":2273,"reactive":2274,"possible":2275,"hudson":2276,"cip":2277,"sil":2278,"##ype":2279,"##queue":2280,"inert":2281,"rev":2282,"##urr":2283,"contin":2284,"fore":2285,"unc":2286,"spar":2287,"callable":2288,"##ecycle":2289,"implement":2290,"frames":2291,"streams":2292,"visibility":2293,"filters":2294,"trail":2295,"pairs":2296,"serializer":2297,"layer":2298,"scheme":2299,"summary":2300,"evaluate":2301,"surface":2302,"lifecycle":2303,"conversation":2304,"authentic":2305,"ancest":2306,"until":2307,"dr":2308,"direction":2309,"mt":2310,"vec":2311,"##pts":2312,"##vers":2313,"attempt":2314,"requests":2315,"strings":2316,"offsets":2317,"processing":2318,"transformer":2319,"partic":2320,"secret":2321,"incomp":2322,"resolvers":2323,"ignor":2324,"author":2325,"invalidate":2326,"seconds":2327,"polyhed":2328,"named":2329,"amount":2330,"shader":2331,"aggreg":2332,"bridge":2333,"toggle":2334,"ag":2335,"os":2336,"sink":2337,"##mt":2338,"##ied":2339,"##ax":2340,"repe":2341,"contrib":2342,"under":2343,"atom":2344,"requires":2345,"translate":2346,"updated":2347,"updates":2348,"flow":2349,"callbacks":2350,"##ediate":2351,"weak":2352,"modified":2353,"secure":2354,"boundary":2355,"fraction":2356,"discard":2357,"allocate":2358,"email":2359,"populate":2360,"subtree":2361,"exclude":2362,"simulation":2363,"kinem":2364,"torque":2365,"less":2366,"rename":2367,"sn":2368,"vor":2369,"##md":2370,"##vable":2371,"##atures":2372,"stiff":2373,"coord":2374,"##ription":2375,"exact":2376,"unb":2377,"then":2378,"beans":2379,"remain":2380,"collid":2381,"recon":2382,"subst":2383,"resolved":2384,"prefetch":2385,"detector":2386,"playlist":2387,"subscription":2388,"area":2389,"concurr":2390,"accum":2391,"await":2392,"##ugh":2393,"answer":2394,"focus":2395,"acquire":2396,"sparse":2397,"stiffness":2398,"dt":2399,"font":2400,"tail":2401,"##nect":2402,"##ged":2403,"##hip":2404,"##way":2405,"##vm":2406,"##ences":2407,"##stream":2408,"##ilt":2409,"enter":2410,"##ters":2411,"##iform":2412,"uniform":2413,"than":2414,"thumb":2415,"times":2416,"regex":2417,"generator":2418,"deserial":2419,"quater":2420,"maximum":2421,"initialization":2422,"mapped":2423,"detect":2424,"glide":2425,"restitution":2426,"connected":2427,"delimit":2428,"configurer":2429,"multipart":2430,"basic":2431,"preview":2432,"account":2433,"##rete":2434,"computer":2435,"alpha":2436,"inertia":2437,"drm":2438,"quatern":2439,"28":2440,"cy":2441,"cpt":2442,"have":2443,"lam":2444,"mv":2445,"pen":2446,"tink":2447,"ui":2448,"##light":2449,"##tain":2450,"inline":2451,"added":2452,"keyboard":2453,"obtain":2454,"arrays":2455,"##ifiable":2456,"tags":2457,"recipients":2458,"tools":2459,"singlet":2460,"encoder":2461,"signed":2462,"discrete":2463,"features":2464,"locked":2465,"warn":2466,"excluded":2467,"assets":2468,"clock":2469,"credentials":2470,"compatible":2471,"placeholder":2472,"jacob":2473,"numeric":2474,"##versal":2475,"contribut":2476,"remaining":2477,"quaternion":2478,"cptr":2479,"tinker":2480,"den":2481,"fol":2482,"gr":2483,"laz":2484,"pv":2485,"##ral":2486,"##man":2487,"##ability":2488,"sha":2489,"colors":2490,"seen":2491,"checked":2492,"decrypt":2493,"manage":2494,"defaults":2495,"framework":2496,"initialized":2497,"nullable":2498,"rows":2499,"consume":2500,"successful":2501,"two":2502,"scheduled":2503,"qualified":2504,"unmod":2505,"feedback":2506,"follow":2507,"cam":2508,"cpp":2509,"mix":2510,"mms":2511,"ns":2512,"ps":2513,"tick":2514,"##ror":2515,"##me":2516,"##uous":2517,"##ges":2518,"##hs":2519,"##era":2520,"resume":2521,"##olute":2522,"bus":2523,"timer":2524,"propag":2525,"caller":2526,"loaded":2527,"endian":2528,"packages":2529,"transformation":2530,"pause":2531,"partial":2532,"marker":2533,"tempor":2534,"specs":2535,"background":2536,"broker":2537,"restart":2538,"subscribe":2539,"components":2540,"sdk":2541,"scalar":2542,"roll":2543,"cookie":2544,"instanti":2545,"colliders":2546,"jacobian":2547,"camera":2548,"gu":2549,"sle":2550,"take":2551,"vir":2552,"zo":2553,"##init":2554,"##ceptor":2555,"coverage":2556,"deg":2557,"dead":2558,"reser":2559,"built":2560,"creation":2561,"decomp":2562,"resolution":2563,"lead":2564,"leaf":2565,"##ready":2566,"bindings":2567,"columns":2568,"variant":2569,"serialized":2570,"working":2571,"includes":2572,"collector":2573,"certific":2574,"symlinks":2575,"diag":2576,"escap":2577,"logging":2578,"advisor":2579,"singleton":2580,"div":2581,"each":2582,"gh":2583,"gear":2584,"##tual":2585,"inverse":2586,"injection":2587,"creator":2588,"already":2589,"upgr":2590,"handsh":2591,"interval":2592,"interceptor":2593,"transport":2594,"press":2595,"objects":2596,"elem":2597,"##ome":2598,"invite":2599,"ordered":2600,"hostname":2601,"opts":2602,"overlap":2603,"injector":2604,"compiler":2605,"absolute":2606,"extended":2607,"lazy":2608,"unmodifiable":2609,"virtual":2610,"cmd":2611,"fn":2612,"mir":2613,"pic":2614,"piv":2615,"wal":2616,"wanted":2617,"##ee":2618,"##sule":2619,"##fr":2620,"##etty":2621,"##ster":2622,"##inger":2623,"##ulated":2624,"enqueue":2625,"seed":2626,"outbound":2627,"the":2628,"that":2629,"applied":2630,"prere":2631,"multim":2632,"stats":2633,"records":2634,"##lice":2635,"wrapped":2636,"backup":2637,"capsule":2638,"receive":2639,"cleanup":2640,"hints":2641,"dimension":2642,"silent":2643,"repeat":2644,"kinematic":2645,"lambd":2646,"sleep":2647,"zoom":2648,"pivot":2649,"core":2650,"hal":2651,"##link":2652,"##linder":2653,"##oing":2654,"##cc":2655,"##going":2656,"##erator":2657,"##ins":2658,"inclus":2659,"inbound":2660,"##rec":2661,"master":2662,"getter":2663,"caption":2664,"configs":2665,"outer":2666,"interp":2667,"checks":2668,"writable":2669,"appro":2670,"##aph":2671,"descript":2672,"##anner":2673,"dirs":2674,"define":2675,"ski":2676,"whites":2677,"edges":2678,"serialization":2679,"merged":2680,"profiles":2681,"setting":2682,"attrs":2683,"overrides":2684,"redirect":2685,"concat":2686,"adaptation":2687,"synchronization":2688,"small":2689,"receipt":2690,"exclusive":2691,"suspension":2692,"removed":2693,"subscriber":2694,"deleted":2695,"volume":2696,"authentication":2697,"cylinder":2698,"upgrade":2699,"handshake":2700,"##frame":2701,"border":2702,"folder":2703,"finger":2704,"li":2705,"men":2706,"nal":2707,"tun":2708,"##tle":2709,"iss":2710,"extr":2711,"bucket":2712,"once":2713,"##quis":2714,"requesting":2715,"##apsed":2716,"processors":2717,"ended":2718,"enclo":2719,"invok":2720,"special":2721,"normalized":2722,"orientation":2723,"restore":2724,"phone":2725,"trimesh":2726,"concave":2727,"##print":2728,"elapsed":2729,"scaling":2730,"migration":2731,"cpu":2732,"implementation":2733,"concurrent":2734,"penet":2735,"rollback":2736,"guess":2737,"mirror":2738,"prerequis":2739,"lambda":2740,"descriptors":2741,"extras":2742,"bad":2743,"best":2744,"cas":2745,"cros":2746,"fade":2747,"io":2748,"mw":2749,"san":2750,"side":2751,"site":2752,"will":2753,"##opts":2754,"##fd":2755,"##odies":2756,"##rees":2757,"advice":2758,"cho":2759,"##vert":2760,"##ift":2761,"##ely":2762,"share":2763,"##ffect":2764,"prev":2765,"maps":2766,"testing":2767,"caching":2768,"desired":2769,"positive":2770,"numbers":2771,"##ibly":2772,"least":2773,"linked":2774,"deprec":2775,"limited":2776,"##iven":2777,"runner":2778,"invocations":2779,"definitions":2780,"spliterator":2781,"based":2782,"meg":2783,"corner":2784,"rewrite":2785,"particip":2786,"whitespace":2787,"menu":2788,"penetration":2789,"ack":2790,"bd":2791,"bodies":2792,"dash":2793,"es":2794,"larg":2795,"live":2796,"mand":2797,"must":2798,"midd":2799,"nav":2800,"tet":2801,"##uff":2802,"##erarch":2803,"##onoi":2804,"##ural":2805,"admin":2806,"##ident":2807,"##idates":2808,"suite":2809,"und":2810,"locations":2811,"processed":2812,"matched":2813,"role":2814,"views":2815,"running":2816,"currency":2817,"##type":2818,"addresses":2819,"verb":2820,"extractor":2821,"owners":2822,"cancelled":2823,"candidates":2824,"divid":2825,"peer":2826,"subtra":2827,"rounding":2828,"combined":2829,"striding":2830,"driver":2831,"foreground":2832,"voronoi":2833,"contributor":2834,"multimap":2835,"middle":2836,"bi":2837,"js":2838,"lp":2839,"ls":2840,"watch":2841,"##oj":2842,"##ses":2843,"##bt":2844,"##onnect":2845,"##atory":2846,"##ories":2847,"##ased":2848,"too":2849,"mac":2850,"setter":2851,"parsed":2852,"unw":2853,"unused":2854,"indent":2855,"alway":2856,"compose":2857,"##orted":2858,"thro":2859,"readable":2860,"offer":2861,"scop":2862,"decrement":2863,"##ressed":2864,"reply":2865,"validation":2866,"changes":2867,"formatter":2868,"detach":2869,"fileset":2870,"insns":2871,"html":2872,"slave":2873,"disconnect":2874,"expanded":2875,"emoj":2876,"services":2877,"presentation":2878,"qualifier":2879,"imports":2880,"rolling":2881,"jdk":2882,"negative":2883,"hierarch":2884,"pipe":2885,"capture":2886,"continue":2887,"trailing":2888,"ignored":2889,"aggregate":2890,"unbind":2891,"propagate":2892,"##initial":2893,"walk":2894,"half":2895,"prerequisite":2896,"participant":2897,"mandatory":2898,"always":2899,"bet":2900,"fam":2901,"my":2902,"ment":2903,"mag":2904,"squ":2905,"tile":2906,"##nel":2907,"##iet":2908,"##lin":2909,"##pro":2910,"##oid":2911,"##ued":2912,"##aring":2913,"##iguous":2914,"##iment":2915,"sets":2916,"##izing":2917,"ant":2918,"buff":2919,"shr":2920,"shift":2921,"##emon":2922,"confir":2923,"heap":2924,"offline":2925,"caches":2926,"decor":2927,"plain":2928,"quot":2929,"quiet":2930,"expir":2931,"expans":2932,"validator":2933,"drain":2934,"##ives":2935,"visited":2936,"permit":2937,"connector":2938,"actor":2939,"roots":2940,"references":2941,"tokens":2942,"specification":2943,"hook":2944,"defined":2945,"strategies":2946,"days":2947,"observable":2948,"synchronize":2949,"combine":2950,"epol":2951,"##arshal":2952,"intersect":2953,"ancestor":2954,"authorization":2955,"agent":2956,"emoji":2957,"famil":2958,"confirm":2959,"fit":2960,"gre":2961,"hm":2962,"il":2963,"pname":2964,"que":2965,"sender":2966,"tl":2967,"tcp":2968,"ws":2969,"wild":2970,"##ield":2971,"##ll":2972,"##less":2973,"##ov":2974,"##fus":2975,"##base":2976,"##ware":2977,"##vity":2978,"##eriment":2979,"##atal":2980,"##esc":2981,"##etic":2982,"isa":2983,"##adoc":2984,"##iset":2985,"##istics":2986,"align":2987,"compos":2988,"multiset":2989,"trie":2990,"experiment":2991,"linking":2992,"flip":2993,"detailed":2994,"javadoc":2995,"jobs":2996,"phi":2997,"gravity":2998,"converters":2999,"blur":3000,"little":3001,"immediate":3002,"migrate":3003,"##idden":3004,"circ":3005,"circle":3006,"cipher":3007,"delimiter":3008,"management":3009,"ghost":3010,"##aphone":3011,"megaphone":3012,"large":3013,"hierarchy":3014,"##fusc":3015,"bra":3016,"dant":3017,"jms":3018,"jump":3019,"jvm":3020,"mn":3021,"mong":3022,"pc":3023,"sin":3024,"##nail":3025,"##pa":3026,"##pos":3027,"##uct":3028,"##card":3029,"##gon":3030,"##ze":3031,"##zig":3032,"##ength":3033,"##alled":3034,"reload":3035,"reaction":3036,"##izable":3037,"power":3038,"outgoing":3039,"intercept":3040,"dismis":3041,"quick":3042,"ops":3043,"implicit":3044,"subtype":3045,"acce":3046,"instan":3047,"installed":3048,"via":3049,"operations":3050,"blocked":3051,"configurations":3052,"javac":3053,"worker":3054,"attachments":3055,"plugins":3056,"windows":3057,"trimm":3058,"integ":3059,"highlight":3060,"quality":3061,"black":3062,"polygon":3063,"##ensitive":3064,"receiver":3065,"suspend":3066,"collapser":3067,"incomplete":3068,"thumbnail":3069,"pressed":3070,"fingerprint":3071,"tetra":3072,"ownership":3073,"expansion":3074,"epoll":3075,"dantzig":3076,"bb":3077,"blob":3078,"cd":3079,"card":3080,"dn":3081,"dens":3082,"drop":3083,"eat":3084,"fo":3085,"fs":3086,"hor":3087,"hidden":3088,"iv":3089,"pot":3090,"slice":3091,"uid":3092,"xpp":3093,"##met":3094,"##oke":3095,"##ym":3096,"inet":3097,"##oded":3098,"std":3099,"sto":3100,"exif":3101,"##ager":3102,"contiguous":3103,"arr":3104,"created":3105,"compan":3106,"upstream":3107,"infl":3108,"reminder":3109,"evi":3110,"tests":3111,"linker":3112,"flash":3113,"##ryption":3114,"medium":3115,"ptrs":3116,"##ifications":3117,"dependent":3118,"instructions":3119,"subscript":3120,"mocks":3121,"characters":3122,"differ":3123,"hits":3124,"superclass":3125,"permissions":3126,"publisher":3127,"absent":3128,"flatten":3129,"preferred":3130,"crash":3131,"txt":3132,"stride":3133,"##arshall":3134,"pixels":3135,"reduce":3136,"degrees":3137,"reserve":3138,"certificate":3139,"skipped":3140,"enclosing":3141,"cross":3142,"unwra":3143,"buffers":3144,"hmac":3145,"mnemon":3146,"mongo":3147,"horiz":3148,"ded":3149,"hist":3150,"let":3151,"lto":3152,"rhs":3153,"sav":3154,"wifi":3155,"##nt":3156,"##match":3157,"##he":3158,"##inator":3159,"##ets":3160,"##ank":3161,"stmt":3162,"isolation":3163,"keyword":3164,"union":3165,"unex":3166,"unident":3167,"struct":3168,"obs":3169,"softness":3170,"prec":3171,"plural":3172,"opcode":3173,"uses":3174,"many":3175,"reporter":3176,"provided":3177,"drag":3178,"inside":3179,"filtered":3180,"convexcast":3181,"defer":3182,"accessor":3183,"hashed":3184,"renderers":3185,"about":3186,"instrument":3187,"unsu":3188,"environments":3189,"fdo":3190,"animate":3191,"incremental":3192,"advance":3193,"ipv":3194,"preference":3195,"unpack":3196,"wildcard":3197,"companion":3198,"mnemonic":3199,"unidentified":3200,"cue":3201,"crop":3202,"ear":3203,"est":3204,"effect":3205,"hy":3206,"jen":3207,"pages":3208,"ren":3209,"##apped":3210,"##for":3211,"##kins":3212,"inher":3213,"##ited":3214,"##rease":3215,"couch":3216,"##velo":3217,"##unc":3218,"bub":3219,"##activ":3220,"does":3221,"contexts":3222,"sugg":3223,"indic":3224,"##eme":3225,"##endar":3226,"seq":3227,"inform":3228,"within":3229,"grow":3230,"front":3231,"matchers":3232,"localized":3233,"##ample":3234,"traversal":3235,"##annot":3236,"modifiers":3237,"paint":3238,"prefixes":3239,"autow":3240,"speed":3241,"parts":3242,"calendar":3243,"specified":3244,"saf":3245,"functions":3246,"scaled":3247,"clusters":3248,"applicable":3249,"mismatch":3250,"basis":3251,"factories":3252,"persistence":3253,"finalize":3254,"evaluation":3255,"conflicting":3256,"launcher":3257,"hardware":3258,"polyhedron":3259,"polyhedral":3260,"deprecated":3261,"divide":3262,"middleman":3263,"experimental":3264,"unwrap":3265,"jenkins":3266,"couchbase":3267,"suggest":3268,"cannot":3269,"dy":3270,"dont":3271,"kill":3272,"none":3273,"pt":3274,"pan":3275,"pid":3276,"pse":3277,"rd":3278,"sand":3279,"slow":3280,"ter":3281,"ten":3282,"wake":3283,"##off":3284,"##ually":3285,"##time":3286,"##cut":3287,"##we":3288,"##allow":3289,"reject":3290,"##ref":3291,"stk":3292,"deep":3293,"##ise":3294,"enh":3295,"enfor":3296,"clip":3297,"setup":3298,"shard":3299,"unic":3300,"unav":3301,"unres":3302,"uninitial":3303,"##endant":3304,"theme":3305,"heart":3306,"locator":3307,"props":3308,"recover":3309,"framebuffer":3310,"floor":3311,"dispose":3312,"triangles":3313,"dirty":3314,"what":3315,"##buf":3316,"connections":3317,"slash":3318,"expander":3319,"servo":3320,"sequential":3321,"requirements":3322,"away":3323,"naming":3324,"compressed":3325,"derived":3326,"country":3327,"separate":3328,"mutex":3329,"warnings":3330,"temporal":3331,"leading":3332,"verbose":3333,"shrink":3334,"instances":3335,"density":3336,"evict":3337,"sandbox":3338,"uninitialized":3339,"64":3340,"aar":3341,"bz":3342,"cum":3343,"da":3344,"fc":3345,"just":3346,"lic":3347,"ml":3348,"mic":3349,"rang":3350,"xf":3351,"##no":3352,"##yth":3353,"##field":3354,"##gl":3355,"##ha":3356,"##bing":3357,"##jor":3358,"##around":3359,"##rect":3360,"##ceed":3361,"##ism":3362,"##aging":3363,"arc":3364,"##imate":3365,"major":3366,"##elet":3367,"shell":3368,"true":3369,"reading":3370,"checker":3371,"written":3372,"starting":3373,"collider":3374,"pretty":3375,"scanner":3376,"expired":3377,"subject":3378,"##view":3379,"encryption":3380,"org":3381,"repo":3382,"##osed":3383,"##ival":3384,"##beat":3385,"commands":3386,"##olders":3387,"partition":3388,"console":3389,"constructors":3390,"synth":3391,"equival":3392,"polling":3393,"closeable":3394,"slot":3395,"workaround":3396,"samples":3397,"activation":3398,"fixt":3399,"waiting":3400,"datas":3401,"layers":3402,"observe":3403,"meas":3404,"termux":3405,"synchronized":3406,"combin":3407,"sticky":3408,"specifications":3409,"cookies":3410,"intersection":3411,"parallelism":3412,"revision":3413,"snap":3414,"coords":3415,"accumulated":3416,"checksum":3417,"navig":3418,"betwe":3419,"unsupp":3420,"bubble":3421,"unicode":3422,"unresol":3423,"heartbeat":3424,"bzl":3425,"between":3426,"codes":3427,"ds":3428,"epo":3429,"ga":3430,"game":3431,"gly":3432,"gimp":3433,"given":3434,"home":3435,"lem":3436,"ok":3437,"siz":3438,"tz":3439,"ud":3440,"##lation":3441,"##of":3442,"##yt":3443,"##yc":3444,"##ka":3445,"##cture":3446,"stenc":3447,"##peg":3448,"##ilities":3449,"shuff":3450,"sup":3451,"idl":3452,"compiled":3453,"infer":3454,"swapped":3455,"transp":3456,"scm":3457,"errno":3458,"desug":3459,"quad":3460,"expose":3461,"subd":3462,"notifier":3463,"leave":3464,"repres":3465,"flux":3466,"##ude":3467,"##udo":3468,"initializers":3469,"skelet":3470,"minutes":3471,"##build":3472,"mob":3473,"simpl":3474,"dexopts":3475,"backend":3476,"unsub":3477,"prepared":3478,"aspects":3479,"##aker":3480,"passed":3481,"conditional":3482,"delayed":3483,"##legal":3484,"explicitbt":3485,"advisors":3486,"derive":3487,"##oice":3488,"counter":3489,"ciph":3490,"coordin":3491,"diagn":3492,"mentions":3493,"family":3494,"greater":3495,"illegal":3496,"bracket":3497,"potential":3498,"deferred":3499,"pseudo":3500,"unsupported":3501,"epoch":3502,"glyph":3503,"gimpact":3504,"lemke":3505,"sizes":3506,"stencil":3507,"skeleton":3508,"dp":3509,"euler":3510,"eager":3511,"mp":3512,"nd":3513,"px":3514,"ping":3515,"rt":3516,"tmp":3517,"tap":3518,"vow":3519,"wall":3520,"##eet":3521,"##ng":3522,"##ps":3523,"##ocket":3524,"##file":3525,"##flow":3526,"##gb":3527,"##wt":3528,"##onym":3529,"reach":3530,"##ents":3531,"##ention":3532,"iso":3533,"##ulses":3534,"toast":3535,"prov":3536,"##abilities":3537,"lost":3538,"##sec":3539,"anonym":3540,"##loy":3541,"pow":3542,"fork":3543,"unst":3544,"unread":3545,"strength":3546,"interaction":3547,"##ecode":3548,"##econd":3549,"starts":3550,"startup":3551,"recyc":3552,"notifications":3553,"sym":3554,"statistics":3555,"traverse":3556,"##loaded":3557,"while":3558,"versions":3559,"queries":3560,"vertical":3561,"verified":3562,"renderbuffer":3563,"srcs":3564,"identifiers":3565,"backward":3566,"capabilities":3567,"relax":3568,"toolchains":3569,"animator":3570,"animated":3571,"endpoints":3572,"authority":3573,"downloads":3574,"baseline":3575,"universal":3576,"legal":3577,"##shot":3578,"millisecond":3579,"raycaster":3580,"optimize":3581,"bulk":3582,"shadow":3583,"epa":3584,"cloud":3585,"removal":3586,"percentile":3587,"latest":3588,"collapse":3589,"canonicalize":3590,"separating":3591,"revoke":3592,"incompat":3593,"deny":3594,"mixed":3595,"dimensions":3596,"issu":3597,"choose":3598,"pipeline":3599,"walks":3600,"since":3601,"horizont":3602,"letter":3603,"panel":3604,"unavailable":3605,"ranges":3606,"fixture":3607,"supert":3608,"vowel":3609,"anonymous":3610,"cmp":3611,"crypt":3612,"coded":3613,"dw":3614,"grid":3615,"hd":3616,"kb":3617,"mm":3618,"mul":3619,"pd":3620,"pur":3621,"rgb":3622,"uint":3623,"##rase":3624,"##my":3625,"##mediate":3626,"##oun":3627,"##come":3628,"##get":3629,"##ki":3630,"##ven":3631,"##xt":3632,"##inc":3633,"##alize":3634,"##alloc":3635,"review":3636,"rebuild":3637,"##uth":3638,"stomp":3639,"deli":3640,"deactiv":3641,"proble":3642,"projection":3643,"parsing":3644,"sound":3645,"dos":3646,"such":3647,"alive":3648,"compression":3649,"trunc":3650,"obfusc":3651,"intermediate":3652,"timing":3653,"spin":3654,"erased":3655,"quest":3656,"descendant":3657,"statements":3658,"streaming":3659,"flac":3660,"memo":3661,"suppressed":3662,"positions":3663,"near":3664,"never":3665,"##eps":3666,"rooted":3667,"sessions":3668,"containing":3669,"allowlist":3670,"sax":3671,"avail":3672,"returns":3673,"produc":3674,"cancellation":3675,"ceil":3676,"phot":3677,"prede":3678,"redis":3679,"decoding":3680,"distrib":3681,"sqr":3682,"dict":3683,"rights":3684,"selections":3685,"declarations":3686,"rounded":3687,"rsw":3688,"unmarshal":3689,"utils":3690,"recursively":3691,"ancestors":3692,"deserialize":3693,"busy":3694,"instantiate":3695,"interpol":3696,"interpolation":3697,"invoked":3698,"dismiss":3699,"acceler":3700,"stopped":3701,"##arshaller":3702,"history":3703,"indicator":3704,"information":3705,"snapshot":3706,"shuffle":3707,"representation":3708,"mobile":3709,"unsubsc":3710,"provision":3711,"milliseconds":3712,"deliver":3713,"crit":3714,"dum":3715,"fence":3716,"fatal":3717,"kaf":3718,"mip":3719,"mone":3720,"sensitive":3721,"tex":3722,"turn":3723,"void":3724,"##eal":3725,"##nd":3726,"##ners":3727,"##app":3728,"##ause":3729,"##oot":3730,"##ource":3731,"##oled":3732,"##hd":3733,"##hared":3734,"##bc":3735,"##bar":3736,"##ving":3737,"##jo":3738,"##ari":3739,"##atile":3740,"##lex":3741,"##alance":3742,"##itize":3743,"reorder":3744,"##rout":3745,"##rium":3746,"##ilib":3747,"##igible":3748,"##oti":3749,"idle":3750,"unlock":3751,"uninter":3752,"compact":3753,"##angle":3754,"handling":3755,"transcode":3756,"locate":3757,"calls":3758,"plus":3759,"subclass":3760,"subrout":3761,"comments":3762,"reflection":3763,"intros":3764,"buffered":3765,"route":3766,"chart":3767,"comma":3768,"logs":3769,"operand":3770,"overlay":3771,"transformed":3772,"##anned":3773,"##scale":3774,"parents":3775,"white":3776,"speaker":3777,"recording":3778,"templ":3779,"hours":3780,"serializable":3781,"equilib":3782,"failures":3783,"sampler":3784,"utc":3785,"unshared":3786,"realtime":3787,"payments":3788,"##msg":3789,"membership":3790,"progressive":3791,"codecs":3792,"secondary":3793,"aliases":3794,"stored":3795,"declaring":3796,"corners":3797,"eligible":3798,"aware":3799,"stubbing":3800,"going":3801,"skyframe":3802,"eps":3803,"jdbc":3804,"exclusions":3805,"logged":3806,"retained":3807,"terminate":3808,"volatile":3809,"again":3810,"flowable":3811,"substitution":3812,"##ught":3813,"deadline":3814,"builtin":3815,"escaped":3816,"division":3817,"sleeping":3818,"tunnel":3819,"sanity":3820,"sanitize":3821,"through":3822,"square":3823,"decorator":3824,"expiration":3825,"interceptors":3826,"##metric":3827,"saved":3828,"enforce":3829,"synthetic":3830,"unresolved":3831,"interactions":3832,"issuer":3833,"horizontal":3834,"supertype":3835,"crypto":3836,"dummy":3837,"kafka":3838,"money":3839,"uninterrupt":3840,"equilibrium":3841,"56":3842,"affix":3843,"bs":3844,"band":3845,"brow":3846,"cb":3847,"did":3848,"far":3849,"gv":3850,"jit":3851,"jetty":3852,"jpeg":3853,"lhs":3854,"nio":3855,"oct":3856,"pull":3857,"pyth":3858,"rf":3859,"sat":3860,"sib":3861,"tld":3862,"tables":3863,"##mx":3864,"##pes":3865,"##pad":3866,"##pap":3867,"##uity":3868,"##ting":3869,"##tip":3870,"##inuity":3871,"##ete":3872,"##enge":3873,"##stru":3874,"##raph":3875,"dem":3876,"deob":3877,"exc":3878,"prom":3879,"addition":3880,"maven":3881,"##inding":3882,"caus":3883,"segments":3884,"lists":3885,"##ipal":3886,"apple":3887,"predi":3888,"princ":3889,"trip":3890,"descending":3891,"##oming":3892,"leak":3893,"lenient":3894,"bool":3895,"except":3896,"locales":3897,"rout":3898,"deploy":3899,"viewport":3900,"##ivity":3901,"initializing":3902,"formats":3903,"drawee":3904,"typing":3905,"privi":3906,"##acing":3907,"overflow":3908,"##anning":3909,"bitcode":3910,"whole":3911,"minus":3912,"accessible":3913,"toolbar":3914,"tooltip":3915,"iterate":3916,"tracks":3917,"projects":3918,"downstream":3919,"increase":3920,"incoming":3921,"debugg":3922,"discont":3923,"closing":3924,"topic":3925,"multiplic":3926,"completable":3927,"ssa":3928,"buttons":3929,"decoded":3930,"archives":3931,"assignable":3932,"joined":3933,"protocols":3934,"emitter":3935,"materials":3936,"destroyed":3937,"pixmap":3938,"cells":3939,"conversions":3940,"latin":3941,"helpers":3942,"terminal":3943,"picture":3944,"reducer":3945,"protect":3946,"protos":3947,"psb":3948,"temporary":3949,"inclusive":3950,"like":3951,"tuning":3952,"cases":3953,"dashed":3954,"subtract":3955,"subtraction":3956,"jsni":3957,"##process":3958,"permits":3959,"blacklist":3960,"##head":3961,"enhan":3962,"mlcp":3963,"measure":3964,"desugar":3965,"simplify":3966,"coordinates":3967,"wallpap":3968,"recycler":3969,"symmetric":3970,"relaxation":3971,"kbs":3972,"question":3973,"producers":3974,"predecess":3975,"principal":3976,"discontinuity":3977,"wallpaper":3978,"banner":3979,"dere":3980,"egl":3981,"fly":3982,"gd":3983,"gc":3984,"hang":3985,"jack":3986,"later":3987,"mutable":3988,"mbd":3989,"occ":3990,"pip":3991,"past":3992,"qos":3993,"rc":3994,"sid":3995,"td":3996,"vs":3997,"vel":3998,"vend":3999,"wr":4000,"wi":4001,"wiz":4002,"well":4003,"xc":4004,"xy":4005,"##iver":4006,"##den":4007,"##dir":4008,"##pl":4009,"##ts":4010,"##size":4011,"##socket":4012,"##ski":4013,"##fs":4014,"##hrow":4015,"##kow":4016,"##width":4017,"##zip":4018,"##args":4019,"##eter":4020,"##ench":4021,"insec":4022,"##itute":4023,"##strix":4024,"stder":4025,"stale":4026,"##rag":4027,"##ilon":4028,"example":4029,"##uring":4030,"ads":4031,"chall":4032,"##olete":4033,"##icast":4034,"##unce":4035,"some":4036,"forces":4037,"unf":4038,"unix":4039,"unbound":4040,"altern":4041,"complex":4042,"indexes":4043,"caused":4044,"argv":4045,"timed":4046,"calling":4047,"multicast":4048,"recomp":4049,"recycle":4050,"subp":4051,"ends":4052,"##omatic":4053,"ord":4054,"bounce":4055,"formed":4056,"pointcut":4057,"rethrow":4058,"floats":4059,"parameterized":4060,"overw":4061,"copied":4062,"minkow":4063,"automatic":4064,"##ache":4065,"destru":4066,"markdown":4067,"most":4068,"synta":4069,"declare":4070,"webp":4071,"websocket":4072,"included":4073,"canceled":4074,"reported":4075,"acceptable":4076,"styles":4077,"overridden":4078,"caster":4079,"stripped":4080,"central":4081,"regions":4082,"chunks":4083,"futures":4084,"fetcher":4085,"warm":4086,"imported":4087,"translator":4088,"##leged":4089,"steps":4090,"adaptive":4091,"rsa":4092,"correct":4093,"categories":4094,"nano":4095,"conflicts":4096,"exported":4097,"negoti":4098,"discovery":4099,"uncomp":4100,"attempts":4101,"substring":4102,"dtm":4103,"grad":4104,"granted":4105,"escaper":4106,"buckets":4107,"magic":4108,"alignment":4109,"composition":4110,"cdata":4111,"stdout":4112,"obsolete":4113,"early":4114,"hystrix":4115,"renam":4116,"safely":4117,"gamepad":4118,"##ooth":4119,"subroutine":4120,"introspect":4121,"epsilon":4122,"tunneling":4123,"python":4124,"causes":4125,"privileged":4126,"gdx":4127,"jackson":4128,"vendor":4129,"wizard":4130,"insecure":4131,"stderr":4132,"challenge":4133,"minkowski":4134,"syntax":4135,"average":4136,"bias":4137,"cw":4138,"cub":4139,"cnt":4140,"dx":4141,"fa":4142,"ge":4143,"gy":4144,"gmt":4145,"ios":4146,"jul":4147,"jta":4148,"jax":4149,"kl":4150,"kot":4151,"ll":4152,"ld":4153,"lot":4154,"mal":4155,"mux":4156,"omit":4157,"ts":4158,"xct":4159,"yo":4160,"##rs":4161,"##mc":4162,"##ivid":4163,"##aque":4164,"##ainder":4165,"##len":4166,"##uce":4167,"##gister":4168,"##hr":4169,"##hing":4170,"##vative":4171,"##ense":4172,"##enames":4173,"##iter":4174,"conser":4175,"##rog":4176,"##raction":4177,"##ulative":4178,"##iler":4179,"develo":4180,"tomc":4181,"##ured":4182,"##isot":4183,"clamp":4184,"chron":4185,"anisot":4186,"pooled":4187,"##active":4188,"shap":4189,"newer":4190,"unbox":4191,"unesc":4192,"alt":4193,"##anged":4194,"##tho":4195,"building":4196,"preload":4197,"even":4198,"pron":4199,"prun":4200,"bytecode":4201,"##lying":4202,"recent":4203,"opaque":4204,"groov":4205,"exposed":4206,"##irectories":4207,"ortho":4208,"sys":4209,"##formed":4210,"states":4211,"draft":4212,"lengths":4213,"##aze":4214,"##azel":4215,"suppress":4216,"supplement":4217,"executors":4218,"##aves":4219,"cleared":4220,"modification":4221,"converted":4222,"supporting":4223,"nulls":4224,"spell":4225,"printable":4226,"allows":4227,"others":4228,"returned":4229,"released":4230,"lowest":4231,"activate":4232,"closure":4233,"mono":4234,"##perator":4235,"preser":4236,"velocities":4237,"injected":4238,"blend":4239,"termination":4240,"##ather":4241,"friend":4242,"months":4243,"explicitly":4244,"islands":4245,"scrub":4246,"##ropic":4247,"unchanged":4248,"surrog":4249,"monitors":4250,"unregistered":4251,"latency":4252,"subscribed":4253,"placeholders":4254,"symbols":4255,"particles":4256,"underlying":4257,"substitute":4258,"mvc":4259,"denied":4260,"reserved":4261,"certificates":4262,"issue":4263,"##iveness":4264,"quoted":4265,"queued":4266,"composite":4267,"pcr":4268,"##paces":4269,"dns":4270,"foo":4271,"inherited":4272,"##offset":4273,"micros":4274,"equivalent":4275,"combiner":4276,"##ytes":4277,"diagnost":4278,"incompatible":4279,"ceiling":4280,"photo":4281,"templates":4282,"browser":4283,"rfc":4284,"sibling":4285,"multiplication":4286,"ordin":4287,"uncompressed":4288,"klass":4289,"kotlin":4290,"malformed":4291,"xctxt":4292,"conservative":4293,"tomcat":4294,"anisotropic":4295,"groovy":4296,"12":4297,"around":4298,"ctr":4299,"cors":4300,"catal":4301,"dro":4302,"ever":4303,"fq":4304,"fal":4305,"fre":4306,"gif":4307,"guard":4308,"hot":4309,"ic":4310,"lv":4311,"lex":4312,"mc":4313,"marshal":4314,"oat":4315,"ring":4316,"rank":4317,"sv":4318,"ta":4319,"vm":4320,"vib":4321,"voice":4322,"##names":4323,"##ially":4324,"##auth":4325,"##las":4326,"##uit":4327,"##uge":4328,"##sors":4329,"##case":4330,"##bis":4331,"##jar":4332,"##inct":4333,"##alc":4334,"invert":4335,"##ito":4336,"##itect":4337,"##cted":4338,"##roph":4339,"stable":4340,"stamp":4341,"coin":4342,"##ulator":4343,"dev":4344,"exempt":4345,"probe":4346,"proced":4347,"proceed":4348,"##isor":4349,"contraction":4350,"online":4351,"sharing":4352,"##quency":4353,"unary":4354,"outs":4355,"outcome":4356,"messaging":4357,"transc":4358,"writers":4359,"beha":4360,"spans":4361,"remainder":4362,"regular":4363,"scanning":4364,"generation":4365,"recv":4366,"recalc":4367,"plan":4368,"quart":4369,"users":4370,"tries":4371,"##ibase":4372,"expires":4373,"##vior":4374,"registr":4375,"leaves":4376,"extents":4377,"visual":4378,"##format":4379,"routes":4380,"logical":4381,"perf":4382,"overloaded":4383,"transforms":4384,"bitrate":4385,"funnel":4386,"paused":4387,"##pected":4388,"where":4389,"particle":4390,"consider":4391,"marked":4392,"entities":4393,"postprocess":4394,"mount":4395,"mojo":4396,"libs":4397,"rendering":4398,"throws":4399,"capable":4400,"controls":4401,"algo":4402,"quantize":4403,"quantization":4404,"restri":4405,"ccd":4406,"transactions":4407,"transactional":4408,"realloc":4409,"styl":4410,"overriding":4411,"boxed":4412,"delim":4413,"multiply":4414,"multiplier":4415,"distinct":4416,"universe":4417,"archiver":4418,"architect":4419,"higher":4420,"subtag":4421,"excludes":4422,"summ":4423,"pointers":4424,"dominator":4425,"installer":4426,"interrupted":4427,"interruptibly":4428,"exports":4429,"css":4430,"percentage":4431,"rewind":4432,"terminator":4433,"counters":4434,"drift":4435,"protot":4436,"silence":4437,"ignoring":4438,"vorbis":4439,"unblock":4440,"ticket":4441,"inclusion":4442,"approve":4443,"scoped":4444,"scoping":4445,"participants":4446,"decorate":4447,"confirmation":4448,"immediately":4449,"four":4450,"influ":4451,"difference":4452,"dedup":4453,"unexpected":4454,"estimate":4455,"autowire":4456,"dao":4457,"license":4458,"truncate":4459,"unsubscribe":4460,"divisions":4461,"uninterruptibly":4462,"bandwidth":4463,"promote":4464,"deregister":4465,"xcert":4466,"##iterations":4467,"chrono":4468,"shapes":4469,"pronoun":4470,"surrogate":4471,"ctrl":4472,"catalog":4473,"dropped":4474,"false":4475,"frequency":4476,"vibrate":4477,"behavior":4478,"ay":4479,"balance":4480,"ces":4481,"dark":4482,"during":4483,"eq":4484,"emsg":4485,"gap":4486,"hack":4487,"huff":4488,"lb":4489,"lim":4490,"nin":4491,"tv":4492,"vp":4493,"xs":4494,"xcode":4495,"##ne":4496,"##ma":4497,"##iary":4498,"##aint":4499,"##pter":4500,"##uation":4501,"##tt":4502,"##ypes":4503,"##fig":4504,"##hib":4505,"##vs":4506,"##ja":4507,"inactive":4508,"##stamp":4509,"relay":4510,"##cel":4511,"##add":4512,"##rain":4513,"deque":4514,"##cha":4515,"##urb":4516,"envelo":4517,"##agram":4518,"##abytes":4519,"advert":4520,"aren":4521,"login":4522,"##sequ":4523,"parcel":4524,"##izations":4525,"##ctionary":4526,"poke":4527,"forced":4528,"##ertext":4529,"ideal":4530,"unlink":4531,"individ":4532,"comparing":4533,"##ended":4534,"atlas":4535,"trend":4536,"seperator":4537,"##iring":4538,"strong":4539,"writes":4540,"below":4541,"##iph":4542,"spy":4543,"offload":4544,"prem":4545,"disallow":4546,"printer":4547,"score":4548,"recur":4549,"##astic":4550,"ground":4551,"finder":4552,"fresh":4553,"fresc":4554,"expl":4555,"exponent":4556,"exporter":4557,"subpro":4558,"handled":4559,"linkstamp":4560,"directly":4561,"formal":4562,"locals":4563,"exceptionally":4564,"##osition":4565,"limits":4566,"##esheet":4567,"insensitive":4568,"packed":4569,"formatters":4570,"runs":4571,"executed":4572,"prime":4573,"##aced":4574,"convention":4575,"bitset":4576,"bitfield":4577,"##phrase":4578,"namespaces":4579,"tokenize":4580,"##opic":4581,"channels":4582,"##tocol":4583,"verts":4584,"descriptions":4585,"hour":4586,"normals":4587,"levels":4588,"protobuf":4589,"rendered":4590,"heightfield":4591,"abort":4592,"above":4593,"slide":4594,"defines":4595,"including":4596,"collected":4597,"product":4598,"produces":4599,"successor":4600,"successors":4601,"passphrase":4602,"periodic":4603,"additionals":4604,"databinding":4605,"bootclass":4606,"years":4607,"adjac":4608,"elastic":4609,"beginning":4610,"retrier":4611,"analyze":4612,"conditions":4613,"both":4614,"jdeps":4615,"clipping":4616,"weights":4617,"discovered":4618,"trusted":4619,"concurrency":4620,"deserializer":4621,"detected":4622,"delimited":4623,"previews":4624,"contributors":4625,"approval":4626,"liqu":4627,"quietly":4628,"queues":4629,"circuit":4630,"trimmable":4631,"deduce":4632,"unexport":4633,"precision":4634,"precomp":4635,"inherit":4636,"cumulative":4637,"fcd":4638,"subdirectories":4639,"ciphertext":4640,"hdrs":4641,"purge":4642,"neverlink":4643,"availability":4644,"interpolate":4645,"critical":4646,"router":4647,"flyway":4648,"hangup":4649,"wrong":4650,"recompose":4651,"overwrite":4652,"destruction":4653,"gyro":4654,"julian":4655,"you":4656,"unescape":4657,"quartz":4658,"registrar":4659,"stylesheet":4660,"architecture":4661,"huffman":4662,"ninja":4663,"envelope":4664,"individual":4665,"fresco":4666,"subprotocol":4667,"60":4668,"aes":4669,"age":4670,"aapt":4671,"aux":4672,"ahead":4673,"bx":4674,"bary":4675,"cut":4676,"cass":4677,"df":4678,"git":4679,"gid":4680,"gest":4681,"gcc":4682,"gather":4683,"ice":4684,"led":4685,"mb":4686,"mq":4687,"mz":4688,"mute":4689,"nn":4690,"nf":4691,"oid":4692,"prag":4693,"sni":4694,"sbuf":4695,"uv":4696,"wave":4697,"xa":4698,"##rations":4699,"##ipe":4700,"##ich":4701,"##alect":4702,"##ln":4703,"##lt":4704,"##lib":4705,"##lude":4706,"##pass":4707,"##te":4708,"##sample":4709,"##cs":4710,"##cing":4711,"##com":4712,"##cale":4713,"##hand":4714,"##vent":4715,"##arable":4716,"##ern":4717,"##atics":4718,"##ety":4719,"##oring":4720,"##alone":4721,"inlin":4722,"##itude":4723,"##stroph":4724,"revert":4725,"##root":4726,"stl":4727,"stro":4728,"copts":4729,"##race":4730,"##rimin":4731,"##uling":4732,"dealloc":4733,"prob":4734,"clang":4735,"clob":4736,"##tered":4737,"resid":4738,"##mpulses":4739,"##unction":4740,"##unge":4741,"##versed":4742,"##verted":4743,"bug":4744,"##andon":4745,"##andra":4746,"sock":4747,"kevent":4748,"shown":4749,"##ffic":4750,"##quer":4751,"classify":4752,"unset":4753,"unscale":4754,"methodref":4755,"##ember":4756,"caught":4757,"argb":4758,"intern":4759,"readers":4760,"swing":4761,"checking":4762,"sps":4763,"splice":4764,"updater":4765,"prelude":4766,"evt":4767,"##ecl":4768,"generating":4769,"generalize":4770,"opus":4771,"registries":4772,"nothing":4773,"##omb":4774,"##ominator":4775,"refs":4776,"counts":4777,"invari":4778,"leap":4779,"ints":4780,"##key":4781,"doubles":4782,"room":4783,"ifc":4784,"solar":4785,"viewed":4786,"executing":4787,"respond":4788,"modes":4789,"##ync":4790,"##scopic":4791,"skew":4792,"contained":4793,"assoc":4794,"bounded":4795,"cti":4796,"depends":4797,"mouse":4798,"iteration":4799,"serializers":4800,"tracker":4801,"consumed":4802,"consumers":4803,"dbc":4804,"abandon":4805,"workers":4806,"signers":4807,"ordering":4808,"discrimin":4809,"timeouts":4810,"scheduling":4811,"attached":4812,"allocations":4813,"hosts":4814,"produce":4815,"accepted":4816,"asynchron":4817,"succeed":4818,"connectivity":4819,"broadcast":4820,"waiters":4821,"mockito":4822,"datagram":4823,"models":4824,"portal":4825,"radix":4826,"binaries":4827,"legend":4828,"wheels":4829,"injectable":4830,"archived":4831,"dialect":4832,"uuids":4833,"characteristics":4834,"editing":4835,"editable":4836,"editors":4837,"highest":4838,"exits":4839,"anchors":4840,"qualifiers":4841,"blaze":4842,"mean":4843,"enumer":4844,"unmarshaller":4845,"standalone":4846,"words":4847,"spaces":4848,"migrations":4849,"good":4850,"duplicates":4851,"exclusion":4852,"touches":4853,"breaker":4854,"breaking":4855,"rectangle":4856,"forwarded":4857,"submitted":4858,"unpro":4859,"collapsed":4860,"encrypted":4861,"terminated":4862,"deletion":4863,"symbolic":4864,"hardness":4865,"captcha":4866,"tabs":4867,"kinematics":4868,"accumulate":4869,"dtd":4870,"timescale":4871,"pvs":4872,"builtins":4873,"divisor":4874,"approx":4875,"redirects":4876,"invokers":4877,"choices":4878,"deprecation":4879,"detached":4880,"mention":4881,"permitted":4882,"families":4883,"circular":4884,"dismissed":4885,"accepter":4886,"trimmed":4887,"suspended":4888,"stdin":4889,"different":4890,"dyad":4891,"terrain":4892,"rejected":4893,"recovery":4894,"cumulation":4895,"navigate":4896,"ciphers":4897,"unstable":4898,"problem":4899,"distribution":4900,"acceleration":4901,"against":4902,"triplet":4903,"debugging":4904,"protected":4905,"blacklisted":4906,"enhancer":4907,"occur":4908,"xyz":4909,"renamed":4910,"faces":4911,"jaxb":4912,"supplemental":4913,"procedure":4914,"prototype":4915,"recursion":4916,"bootclasspath":4917,"liquibase":4918,"gyroscopic":4919,"cassandra":4920,"gesture":4921,"unscaled":4922,"asynchronous":4923,"ast":4924,"air":4925,"affect":4926,"bes":4927,"bid":4928,"cues":4929,"crc":4930,"cron":4931,"due":4932,"dates":4933,"fm":4934,"fav":4935,"facing":4936,"gav":4937,"gson":4938,"greg":4939,"gwt":4940,"giph":4941,"holders":4942,"hazel":4943,"itr":4944,"jer":4945,"jpa":4946,"jwt":4947,"jnd":4948,"jmx":4949,"light":4950,"mk":4951,"marshaller":4952,"nc":4953,"nps":4954,"oc":4955,"pb":4956,"pick":4957,"pulse":4958,"tre":4959,"tip":4960,"vc":4961,"wid":4962,"zz":4963,"zer":4964,"##ned":4965,"##nary":4966,"##rative":4967,"##ier":4968,"##ience":4969,"##pi":4970,"##opt":4971,"##ough":4972,"##uent":4973,"##ura":4974,"##cause":4975,"##kely":4976,"##vant":4977,"##arn":4978,"##arent":4979,"##ons":4980,"##atable":4981,"##ines":4982,"##inations":4983,"##ored":4984,"intr":4985,"inverted":4986,"##stack":4987,"##string":4988,"##start":4989,"##ilar":4990,"exo":4991,"extern":4992,"exha":4993,"##urnal":4994,"##isf":4995,"##isible":4996,"enough":4997,"clause":4998,"##tery":4999,"chip":5000,"choice":5001,"arith":5002,"##sey":5003,"##istent":5004,"##istency":5005,"##istrative":5006,"getters":5007,"ongoing":5008,"dow":5009,"newly":5010,"unin":5011,"unre":5012,"unhand":5013,"##index":5014,"indexing":5015,"##enerate":5016,"builds":5017,"buildable":5018,"handles":5019,"inflate":5020,"asm":5021,"interf":5022,"interpr":5023,"three":5024,"##uss":5025,"swipe":5026,"transient":5027,"writing":5028,"writability":5029,"bep":5030,"because":5031,"spi":5032,"remover":5033,"decrease":5034,"loadable":5035,"planned":5036,"french":5037,"invisible":5038,"leb":5039,"book":5040,"buffering":5041,"validity":5042,"fluent":5043,"varint":5044,"provides":5045,"violation":5046,"cursors":5047,"journal":5048,"insight":5049,"filtering":5050,"images":5051,"perm":5052,"neo":5053,"mappers":5054,"traffic":5055,"##encer":5056,"currently":5057,"customer":5058,"##scape":5059,"which":5060,"minute":5061,"##ificant":5062,"appendable":5063,"selectable":5064,"destinations":5065,"markup":5066,"assume":5067,"playing":5068,"##impulses":5069,"moment":5070,"orig":5071,"renderable":5072,"incor":5073,"servers":5074,"returning":5075,"insertion":5076,"relevant":5077,"replacements":5078,"merger":5079,"equality":5080,"allocation":5081,"allocated":5082,"audit":5083,"manifests":5084,"accepts":5085,"existent":5086,"animations":5087,"centroid":5088,"mocked":5089,"emf":5090,"downloader":5091,"uniqu":5092,"suffixes":5093,"integr":5094,"assigned":5095,"blank":5096,"savepoint":5097,"subtitle":5098,"scripts":5099,"pkcs":5100,"persisted":5101,"rsort":5102,"publication":5103,"else":5104,"domin":5105,"retrieved":5106,"utilization":5107,"similar":5108,"cfg":5109,"reactor":5110,"branches":5111,"compatibility":5112,"possibly":5113,"conversations":5114,"subscribers":5115,"clipped":5116,"committed":5117,"focused":5118,"numerator":5119,"continuous":5120,"continuation":5121,"foreign":5122,"uncond":5123,"repeated":5124,"reconc":5125,"reconnect":5126,"decrypted":5127,"psued":5128,"instantiation":5129,"instantiator":5130,"transports":5131,"repeatable":5132,"likely":5133,"administrative":5134,"watcher":5135,"expiring":5136,"tls":5137,"javacopts":5138,"integrate":5139,"tetrahed":5140,"influx":5141,"safety":5142,"ternary":5143,"tensor":5144,"slashes":5145,"datasource":5146,"gauge":5147,"gauss":5148,"transpose":5149,"reached":5150,"dwp":5151,"deactivation":5152,"problems":5153,"obfuscation":5154,"spinning":5155,"memoized":5156,"nearest":5157,"delivery":5158,"deobfusc":5159,"predict":5160,"predecessor":5161,"llvm":5162,"friendly":5163,"ordinal":5164,"fqn":5165,"outside":5166,"influencer":5167,"pronounced":5168,"lbf":5169,"vpx":5170,"##hibited":5171,"precompiled":5172,"601":5173,"ledger":5174,"mqtt":5175,"inlining":5176,"##eclared":5177,"associ":5178,"discriminator":5179,"affected":5180,"giphy":5181,"hazelcast":5182,"jersey":5183,"jndi":5184,"zeros":5185,"externally":5186,"exhaust":5187,"unhandled":5188,"psuedo":5189,"00":5190,"88":5191,"ale":5192,"bp":5193,"bw":5194,"ball":5195,"ci":5196,"cname":5197,"dd":5198,"dc":5199,"dfd":5200,"eith":5201,"efd":5202,"eof":5203,"fake":5204,"green":5205,"gzip":5206,"hs":5207,"hz":5208,"hun":5209,"jn":5210,"jam":5211,"jud":5212,"junction":5213,"lc":5214,"lng":5215,"liveness":5216,"mx":5217,"np":5218,"nb":5219,"nar":5220,"nat":5221,"nod":5222,"nib":5223,"pas":5224,"pert":5225,"pane":5226,"png":5227,"rp":5228,"rx":5229,"rst":5230,"rabb":5231,"rpos":5232,"sr":5233,"sf":5234,"sen":5235,"slo":5236,"ti":5237,"tt":5238,"tc":5239,"tiles":5240,"umb":5241,"vf":5242,"win":5243,"yes":5244,"zy":5245,"##nitude":5246,"##ice":5247,"##air":5248,"##aught":5249,"##lp":5250,"##uet":5251,"##uate":5252,"##sub":5253,"##call":5254,"##hi":5255,"##ham":5256,"##hind":5257,"##by":5258,"##big":5259,"##zy":5260,"##zed":5261,"##onate":5262,"##orian":5263,"##level":5264,"##ctl":5265,"##sth":5266,"##stat":5267,"reversed":5268,"##reate":5269,"##rell":5270,"##ami":5271,"ste":5272,"sts":5273,"still":5274,"stax":5275,"##ceful":5276,"##asing":5277,"coal":5278,"##raw":5279,"##rized":5280,"##cker":5281,"##igit":5282,"toi":5283,"toler":5284,"exe":5285,"promp":5286,"##ised":5287,"##abi":5288,"##ablish":5289,"resend":5290,"arm":5291,"arme":5292,"##idel":5293,"##ptype":5294,"##semb":5295,"mail":5296,"maint":5297,"maker":5298,"##istic":5299,"para":5300,"party":5301,"##ultip":5302,"keyed":5303,"shallow":5304,"##umed":5305,"newline":5306,"classifier":5307,"unqu":5308,"unload":5309,"unorder":5310,"unprint":5311,"unzip":5312,"aligned":5313,"seidel":5314,"infin":5315,"linvel":5316,"interner":5317,"##rity":5318,"##usable":5319,"reads":5320,"spanned":5321,"locally":5322,"##atched":5323,"preface":5324,"preced":5325,"filled":5326,"recorder":5327,"recreate":5328,"fram":5329,"expire":5330,"expunge":5331,"cacheable":5332,"headset":5333,"headless":5334,"refc":5335,"refit":5336,"reflect":5337,"collisions":5338,"parametrized":5339,"replay":5340,"validated":5341,"fling":5342,"internalformat":5343,"varargs":5344,"exceed":5345,"filterable":5346,"drawer":5347,"##cles":5348,"visitors":5349,"retro":5350,"retention":5351,"dispos":5352,"price":5353,"generics":5354,"transformers":5355,"modifier":5356,"modifications":5357,"who":5358,"commandline":5359,"minimal":5360,"tokenized":5361,"angvel":5362,"##ached":5363,"recorded":5364,"markers":5365,"javax":5366,"accesses":5367,"called":5368,"shorten":5369,"shortcut":5370,"ctl":5371,"finally":5372,"verifier":5373,"moov":5374,"libc":5375,"hole":5376,"equation":5377,"avoid":5378,"extracted":5379,"projected":5380,"downsample":5381,"dbg":5382,"frac":5383,"incident":5384,"abi":5385,"clients":5386,"slid":5387,"identical":5388,"inserts":5389,"axle":5390,"backoff":5391,"origins":5392,"owning":5393,"resting":5394,"relation":5395,"produced":5396,"constants":5397,"phrase":5398,"durations":5399,"graham":5400,"graceful":5401,"waiter":5402,"mocking":5403,"miss":5404,"radio":5405,"redo":5406,"schemas":5407,"daylight":5408,"netscape":5409,"loops":5410,"looper":5411,"dictionary":5412,"edits":5413,"nesting":5414,"bluet":5415,"adapters":5416,"##ateral":5417,"translation":5418,"optimization":5419,"platforms":5420,"graphics":5421,"rss":5422,"##ogram":5423,"unmatched":5424,"corre":5425,"corout":5426,"corrupt":5427,"globals":5428,"freeze":5429,"rotated":5430,"policies":5431,"masses":5432,"##enses":5433,"documentation":5434,"pinned":5435,"triggered":5436,"interruptible":5437,"amf":5438,"##centric":5439,"##config":5440,"smooth":5441,"dimen":5442,"multiplex":5443,"breaks":5444,"rects":5445,"deriv":5446,"deletes":5447,"ansi":5448,"reduction":5449,"mutations":5450,"uncaught":5451,"uncached":5452,"authenticator":5453,"aggregated":5454,"sniff":5455,"reconstru":5456,"deserializers":5457,"denominator":5458,"successfully":5459,"decompose":5460,"diagon":5461,"skipping":5462,"concaten":5463,"mirrored":5464,"undo":5465,"macro":5466,"scopes":5467,"disconnected":5468,"##initialize":5469,"magnitude":5470,"squared":5471,"hooks":5472,"fits":5473,"ilst":5474,"circum":5475,"pcm":5476,"trimming":5477,"integration":5478,"integrity":5479,"cdn":5480,"histogram":5481,"establish":5482,"effects":5483,"suggested":5484,"pts":5485,"rdeps":5486,"enhance":5487,"shards":5488,"licenses":5489,"navigable":5490,"tzname":5491,"udp":5492,"udt":5493,"##yte":5494,"transparent":5495,"reachable":5496,"shadowed":5497,"deactivate":5498,"descendants":5499,"satisf":5500,"demand":5501,"deobf":5502,"predecessors":5503,"warmstart":5504,"negotiation":5505,"gradle":5506,"cubic":5507,"develop":5508,"preserve":5509,"footer":5510,"diagnostics":5511,"tau":5512,"contractions":5513,"recalculate":5514,"##urbation":5515,"adjacent":5516,"pragma":5517,"##strophe":5518,"invariant":5519,"unprocess":5520,"bidi":5521,"favor":5522,"gregorian":5523,"mkdir":5524,"widget":5525,"introdu":5526,"insights":5527,"incorrect":5528,"reconcile":5529,"tetrahedron":5530,"either":5531,"hunter":5532,"jamo":5533,"lcov":5534,"narrow":5535,"natural":5536,"nibble":5537,"perturbation":5538,"rabbit":5539,"sensor":5540,"umbrell":5541,"zyx":5542,"tolerance":5543,"armeabi":5544,"unordered":5545,"unprintable":5546,"bluetooth":5547,"warmstarting":5548,"umbrella":5549,"84":5550,"ae":5551,"amb":5552,"ba":5553,"bat":5554,"bom":5555,"bold":5556,"bench":5557,"cul":5558,"came":5559,"cata":5560,"era":5561,"fu":5562,"fv":5563,"fac":5564,"fmt":5565,"germ":5566,"hold":5567,"kw":5568,"king":5569,"kqueue":5570,"lived":5571,"mid":5572,"mus":5573,"mos":5574,"marshall":5575,"na":5576,"notation":5577,"nfd":5578,"od":5579,"oom":5580,"oauth":5581,"pw":5582,"pal":5583,"pump":5584,"pitch":5585,"qr":5586,"qs":5587,"qid":5588,"rle":5589,"rub":5590,"sor":5591,"sun":5592,"tb":5593,"tin":5594,"tmx":5595,"wide":5596,"xd":5597,"yy":5598,"##ef":5599,"##now":5600,"##rg":5601,"##rer":5602,"##rary":5603,"##ai":5604,"##aim":5605,"##lave":5606,"##length":5607,"##dates":5608,"##prit":5609,"##tion":5610,"##ttle":5611,"##sert":5612,"##sible":5613,"##cy":5614,"##cg":5615,"##fit":5616,"##from":5617,"##fron":5618,"##gram":5619,"##hes":5620,"##bvt":5621,"##balance":5622,"##wi":5623,"##xx":5624,"##xml":5625,"##zzy":5626,"##ars":5627,"##arer":5628,"##ares":5629,"##aterial":5630,"##etry":5631,"##enience":5632,"##als":5633,"##alink":5634,"inactiv":5635,"##itations":5636,"##italize":5637,"##ctor":5638,"reve":5639,"reuse":5640,"really":5641,"reinitialize":5642,"##oder":5643,"##amble":5644,"##ambig":5645,"stere":5646,"steal":5647,"coer":5648,"##pearing":5649,"##ily":5650,"##iliary":5651,"##iltered":5652,"##ilateral":5653,"##chine":5654,"exptype":5655,"promet":5656,"clut":5657,"clinit":5658,"##agraph":5659,"adts":5660,"chass":5661,"##other":5662,"##estation":5663,"##olidate":5664,"##ptic":5665,"addend":5666,"##icated":5667,"##icates":5668,"##imes":5669,"##imated":5670,"##search":5671,"machine":5672,"##isted":5673,"setters":5674,"park":5675,"paragraph":5676,"another":5677,"##ppet":5678,"forb":5679,"keyframe":5680,"sheet":5681,"docker":5682,"newest":5683,"##ertow":5684,"unless":5685,"indirect":5686,"##thest":5687,"upsert":5688,"see":5689,"assemb":5690,"outcom":5691,"thunk":5692,"timecode":5693,"##ritten":5694,"attestation":5695,"translit":5696,"checkpoint":5697,"behind":5698,"heav":5699,"spread":5700,"spacing":5701,"remot":5702,"initi":5703,"preamble":5704,"disap":5705,"disambig":5706,"##ribed":5707,"callstack":5708,"erase":5709,"collation":5710,"scis":5711,"general":5712,"loads":5713,"elems":5714,"plaint":5715,"quies":5716,"manual":5717,"nums":5718,"##ants":5719,"##ometry":5720,"refined":5721,"resolvable":5722,"invitations":5723,"enclave":5724,"learn":5725,"orph":5726,"vararg":5727,"depset":5728,"textual":5729,"packer":5730,"drawing":5731,"visitation":5732,"retarget":5733,"traces":5734,"tracer":5735,"actually":5736,"parameteriv":5737,"transformations":5738,"convenience":5739,"uris":5740,"operatorbt":5741,"referrer":5742,"deflate":5743,"bvhs":5744,"parenthes":5745,"minor":5746,"prefixed":5747,"nullify":5748,"nullability":5749,"partially":5750,"selectors":5751,"consolidate":5752,"containers":5753,"assure":5754,"accessibility":5755,"println":5756,"proxied":5757,"moon":5758,"moved":5759,"iterative":5760,"pools":5761,"tracking":5762,"consumes":5763,"incre":5764,"incons":5765,"showing":5766,"replaced":5767,"throwing":5768,"decls":5769,"dexing":5770,"units":5771,"signing":5772,"signup":5773,"joints":5774,"backing":5775,"activated":5776,"raise":5777,"senders":5778,"prepend":5779,"accepting":5780,"cancelation":5781,"##ledge":5782,"connecting":5783,"centers":5784,"patched":5785,"manifolds":5786,"collections":5787,"grab":5788,"popup":5789,"passes":5790,"predeclared":5791,"predicates":5792,"downloaded":5793,"portable":5794,"sequences":5795,"certs":5796,"redund":5797,"basename":5798,"chunked":5799,"primitives":5800,"globs":5801,"##umption":5802,"netty":5803,"injectee":5804,"zips":5805,"lowercase":5806,"keepclass":5807,"hello":5808,"uppercase":5809,"nodeset":5810,"radians":5811,"joining":5812,"terms":5813,"sqlxml":5814,"masks":5815,"masked":5816,"##printer":5817,"finalizer":5818,"stripes":5819,"invalidated":5820,"ell":5821,"stubs":5822,"semaph":5823,"evaluator":5824,"annotate":5825,"genfiles":5826,"retriever":5827,"uploads":5828,"uploader":5829,"asciid":5830,"privateuse":5831,"##rences":5832,"delegated":5833,"compressible":5834,"transferred":5835,"loggers":5836,"foundry":5837,"apks":5838,"bundled":5839,"dimens":5840,"crl":5841,"crumb":5842,"fulf":5843,"dotd":5844,"sections":5845,"healthy":5846,"discoverer":5847,"kinetic":5848,"##resource":5849,"separated":5850,"muted":5851,"strictness":5852,"forever":5853,"implemented":5854,"authenticated":5855,"snak":5856,"exactly":5857,"subscriptions":5858,"accumulator":5859,"tailoring":5860,"gran":5861,"grant":5862,"frameworks":5863,"following":5864,"decompress":5865,"leader":5866,"variants":5867,"injections":5868,"pressure":5869,"silently":5870,"zoomed":5871,"inclusions":5872,"fingerprinter":5873,"prevent":5874,"acknow":5875,"mustache":5876,"undertow":5877,"dividend":5878,"thrown":5879,"throttle":5880,"better":5881,"squares":5882,"anti":5883,"quotes":5884,"confirmed":5885,"grep":5886,"reactions":5887,"polygons":5888,"horizon":5889,"##heus":5890,"instrumented":5891,"instrumentation":5892,"doesnt":5893,"autowiring":5894,"dylib":5895,"tenant":5896,"wakeup":5897,"equivalence":5898,"diagnose":5899,"glyphs":5900,"mpvs":5901,"incompatibility":5902,"dwo":5903,"obfuscated":5904,"memoize":5905,"sqrt":5906,"unsubscribed":5907,"mips":5908,"##appable":5909,"octal":5910,"satur":5911,"demo":5912,"deployment":5913,"debuggable":5914,"##plane":5915,"unfiltered":5916,"alternate":5917,"negotiator":5918,"gradient":5919,"geometry":5920,"muxed":5921,"developer":5922,"sysroot":5923,"sysctl":5924,"diagnostic":5925,"every":5926,"ringing":5927,"devices":5928,"transcript":5929,"summar":5930,"catalogs":5931,"advertised":5932,"arena":5933,"premultip":5934,"elasticsearch":5935,"auxiliary":5936,"barycentric":5937,"nncg":5938,"snippet":5939,"wavefron":5940,"##queries":5941,"occurrences":5942,"airplane":5943,"ocsp":5944,"##urable":5945,"interpret":5946,"permalink":5947,"integral":5948,"unconditional":5949,"888":5950,"alef":5951,"jnlp":5952,"judgment":5953,"nodex":5954,"passth":5955,"prompt":5956,"infinite":5957,"exceeded":5958,"retrofit":5959,"coroutine":5960,"corrupted":5961,"derivative":5962,"satisfied":5963,"unprocessed":5964,"culprit":5965,"camel":5966,"fuzzy":5967,"german":5968,"kwargs":5969,"music":5970,"moshi":5971,"odd":5972,"ruby":5973,"tiny":5974,"reveal":5975,"stereot":5976,"prometheus":5977,"chassis":5978,"outcomes":5979,"heavy":5980,"disappearing":5981,"disambiguate":5982,"plaintext":5983,"semaphore":5984,"acknowledge":5985,"wavefront":5986,"08":5987,"09":5988,"au":5989,"bim":5990,"bare":5991,"bframe":5992,"bazel":5993,"cm":5994,"cgl":5995,"dl":5996,"dang":5997,"eu":5998,"et":5999,"eol":6000,"ecl":6001,"fold":6002,"gol":6003,"het":6004,"hext":6005,"hup":6006,"hub":6007,"herm":6008,"hms":6009,"happ":6010,"hair":6011,"iface":6012,"ijar":6013,"kn":6014,"kil":6015,"late":6016,"latch":6017,"ltr":6018,"mil":6019,"mbe":6020,"nt":6021,"nvi":6022,"night":6023,"pes":6024,"pager":6025,"pps":6026,"qname":6027,"rm":6028,"rod":6029,"ration":6030,"rom":6031,"ramp":6032,"rnd":6033,"slic":6034,"sens":6035,"te":6036,"tu":6037,"tert":6038,"tang":6039,"tash":6040,"trees":6041,"ule":6042,"va":6043,"wt":6044,"wg":6045,"wer":6046,"wit":6047,"wel":6048,"wac":6049,"wider":6050,"wants":6051,"xform":6052,"xpath":6053,"xoffset":6054,"yield":6055,"yoffset":6056,"zi":6057,"zon":6058,"zfa":6059,"zpass":6060,"##epp":6061,"##elect":6062,"##eled":6063,"##ns":6064,"##null":6065,"##rf":6066,"##run":6067,"##mod":6068,"##ii":6069,"##lies":6070,"##lename":6071,"##lined":6072,"##digit":6073,"##pan":6074,"##press":6075,"##pose":6076,"##ool":6077,"##octor":6078,"##tie":6079,"##trace":6080,"##sl":6081,"##yst":6082,"##fix":6083,"##filt":6084,"##gen":6085,"##graph":6086,"##hread":6087,"##hole":6088,"##khd":6089,"##bings":6090,"##wise":6091,"##ves":6092,"##voke":6093,"##ats":6094,"##atim":6095,"##esired":6096,"##invoke":6097,"##ores":6098,"##orized":6099,"##orph":6100,"##eness":6101,"##left":6102,"##lements":6103,"inset":6104,"inlined":6105,"##itel":6106,"##itative":6107,"##anization":6108,"##anced":6109,"##stall":6110,"##stool":6111,"reb":6112,"reent":6113,"rejection":6114,"##oding":6115,"##ameter":6116,"##entially":6117,"##rastru":6118,"##ulled":6119,"dequeue":6120,"##ched":6121,"##check":6122,"proc":6123,"proj":6124,"prohibited":6125,"##ison":6126,"clz":6127,"##aged":6128,"contended":6129,"adamping":6130,"adopt":6131,"respect":6132,"##estart":6133,"##olated":6134,"##olume":6135,"##ically":6136,"##imin":6137,"##imize":6138,"##imity":6139,"##select":6140,"mailer":6141,"##istical":6142,"##ppers":6143,"##verified":6144,"creating":6145,"keepp":6146,"popping":6147,"onth":6148,"onboard":6149,"oninvoke":6150,"shear":6151,"sharable":6152,"classname":6153,"classfile":6154,"suites":6155,"unenc":6156,"unauth":6157,"unsequ":6158,"unselect":6159,"unverified":6160,"indep":6161,"compar":6162,"complement":6163,"indexer":6164,"##endent":6165,"trun":6166,"builders":6167,"##ird":6168,"listed":6169,"infrastru":6170,"##rome":6171,"linux":6172,"interest":6173,"interru":6174,"constrain":6175,"thre":6176,"thiz":6177,"thick":6178,"checkout":6179,"requestor":6180,"##uple":6181,"been":6182,"being":6183,"##ipulation":6184,"series":6185,"spied":6186,"splt":6187,"remap":6188,"remember":6189,"locii":6190,"apps":6191,"applies":6192,"software":6193,"prealloc":6194,"evfilt":6195,"eras":6196,"filenames":6197,"offsetof":6198,"scl":6199,"decryption":6200,"loadbalance":6201,"plant":6202,"planted":6203,"deser":6204,"quit":6205,"opacity":6206,"manipulation":6207,"##aps":6208,"##apitalize":6209,"trigg":6210,"impers":6211,"implied":6212,"implements":6213,"##ustum":6214,"processes":6215,"frustum":6216,"subs":6217,"subgraph":6218,"descend":6219,"anno":6220,"grouping":6221,"groupname":6222,"streamable":6223,"lease":6224,"extent":6225,"##keel":6226,"linkify":6227,"acros":6228,"flir":6229,"sysc":6230,"statistical":6231,"dragg":6232,"drained":6233,"memcp":6234,"vimpulses":6235,"##oser":6236,"limiter":6237,"flooding":6238,"joyst":6239,"##iving":6240,"packs":6241,"img":6242,"formatted":6243,"logo":6244,"drawbuffer":6245,"visiting":6246,"retries":6247,"suppli":6248,"supplied":6249,"##licate":6250,"perman":6251,"##aving":6252,"blocker":6253,"itf":6254,"bindex":6255,"travel":6256,"prim":6257,"detection":6258,"parameterf":6259,"##encies":6260,"##types":6261,"responses":6262,"responsible":6263,"modular":6264,"defs":6265,"labeled":6266,"##screen":6267,"whitel":6268,"appended":6269,"tagged":6270,"selectables":6271,"consistency":6272,"entire":6273,"assumption":6274,"constructbt":6275,"proxies":6276,"proximate":6277,"proximity":6278,"ctor":6279,"postfix":6280,"nonnull":6281,"pooling":6282,"tracked":6283,"wrappers":6284,"polar":6285,"frag":6286,"functional":6287,"abrupt":6288,"aborted":6289,"srcpos":6290,"calculated":6291,"identify":6292,"releas":6293,"signs":6294,"significant":6295,"backspace":6296,"backpress":6297,"stacktrace":6298,"fee":6299,"merg":6300,"owns":6301,"broken":6302,"closer":6303,"unsorted":6304,"related":6305,"relpos":6306,"##perlink":6307,"topics":6308,"cea":6309,"presets":6310,"##erefs":6311,"casting":6312,"expecting":6313,"determin":6314,"opened":6315,"fullscreen":6316,"docs":6317,"configurator":6318,"misc":6319,"##ontact":6320,"certaint":6321,"##book":6322,"aliased":6323,"expressions":6324,"fetched":6325,"characteristic":6326,"##aneous":6327,"syncframe":6328,"refreshed":6329,"promised":6330,"blue":6331,"joins":6332,"stores":6333,"dstpos":6334,"translated":6335,"emitting":6336,"chains":6337,"superinter":6338,"adaptresource":6339,"synchronous":6340,"synchronizations":6341,"graphic":6342,"graphite":6343,"rsmd":6344,"rsocket":6345,"digests":6346,"##ograph":6347,"unmappable":6348,"invalidation":6349,"elimin":6350,"awake":6351,"published":6352,"sbyte":6353,"##validate":6354,"stubbings":6355,"ascending":6356,"ascendant":6357,"listening":6358,"documents":6359,"swept":6360,"adjuster":6361,"adjusted":6362,"adjustment":6363,"retrieval":6364,"languages":6365,"observers":6366,"transitions":6367,"##connect":6368,"smart":6369,"extends":6370,"preferences":6371,"bars":6372,"compressor":6373,"csv":6374,"removing":6375,"weeks":6376,"touched":6377,"negate":6378,"crlf":6379,"life":6380,"rewritten":6381,"dialogue":6382,"unpin":6383,"computation":6384,"discoverable":6385,"authenticate":6386,"metered":6387,"separation":6388,"captured":6389,"acquired":6390,"tablename":6391,"trailer":6392,"trailers":6393,"authorized":6394,"authoritative":6395,"awaiting":6396,"deserialze":6397,"delimiters":6398,"cycles":6399,"propagating":6400,"decomposition":6401,"escaping":6402,"wallet":6403,"their":6404,"multimaterial":6405,"backups":6406,"##ccc":6407,"smaller":6408,"enclosed":6409,"crosstool":6410,"chooser":6411,"shareable":6412,"dashboard":6413,"undesired":6414,"verbatim":6415,"shrunk":6416,"expiry":6417,"validators":6418,"##pair":6419,"instanced":6420,"integers":6421,"blackhole":6422,"potentially":6423,"stopping":6424,"inflater":6425,"savings":6426,"##ntl":6427,"keywords":6428,"hyperlink":6429,"renew":6430,"##uncing":6431,"autowired":6432,"clipboard":6433,"sandboxed":6434,"fcm":6435,"fcntl":6436,"organization":6437,"synthes":6438,"slots":6439,"dataset":6440,"measures":6441,"combining":6442,"navigation":6443,"unresolvable":6444,"dsym":6445,"desugared":6446,"subdir":6447,"coordinate":6448,"ndimpulses":6449,"rtc":6450,"forked":6451,"vowels":6452,"purpose":6453,"rgba":6454,"truncated":6455,"photos":6456,"indicators":6457,"delivered":6458,"reordering":6459,"substitutions":6460,"uninterruptible":6461,"octets":6462,"prediction":6463,"triple":6464,"enhanced":6465,"tdot":6466,"unbounded":6467,"alternative":6468,"subpage":6469,"subpages":6470,"renaming":6471,"introspector":6472,"ldap":6473,"lottery":6474,"lottie":6475,"pruned":6476,"preserving":6477,"friends":6478,"ordinary":6479,"taken":6480,"exemption":6481,"transcoder":6482,"recvfrom":6483,"planar":6484,"restriction":6485,"restricted":6486,"reallocate":6487,"subtags":6488,"dominators":6489,"arenas":6490,"parcelable":6491,"linkstamps":6492,"unexported":6493,"inheritance":6494,"stroke":6495,"residual":6496,"##embernames":6497,"internet":6498,"succeeded":6499,"legends":6500,"uninstall":6501,"origami":6502,"uniquify":6503,"deobfuscator":6504,"associated":6505,"ddl":6506,"rpc":6507,"stepping":6508,"coales":6509,"framerefs":6510,"disposable":6511,"correction":6512,"narrowing":6513,"catastrophe":6514,"facets":6515,"marshalling":6516,"inactivity":6517,"coerce":6518,"forbid":6519,"assemble":6520,"transliter":6521,"orphan":6522,"asciidoctor":6523,"fulfill":6524,"saturated":6525,"culprits":6526,"stereotypes":6527,"augment":6528,"cglib":6529,"golomb":6530,"hetero":6531,"hermetic":6532,"happy":6533,"mbean":6534,"nvimpulses":6535,"rationale":6536,"slices":6537,"tertiary":6538,"tangent":6539,"tashkeel":6540,"werror":6541,"welcome":6542,"zipper":6543,"zoned":6544,"zfail":6545,"##hreads":6546,"##orphic":6547,"insets":6548,"onthrow":6549,"onboarding":6550,"unsequenced":6551,"independent":6552,"infrastructure":6553,"interruption":6554,"thickness":6555,"triggers":6556,"across":6557,"syscall":6558,"memcpy":6559,"joystick":6560,"suppliers":6561,"permanent":6562,"backpressure":6563,"certainty":6564,"04":6565,"10":6566,"24":6567,"25":6568,"aa":6569,"aj":6570,"ara":6571,"aver":6572,"apo":6573,"aero":6574,"aquer":6575,"aindex":6576,"bn":6577,"bor":6578,"bel":6579,"bread":6580,"bord":6581,"bank":6582,"boring":6583,"cv":6584,"cch":6585,"citerations":6586,"dh":6587,"dag":6588,"dol":6589,"dub":6590,"damp":6591,"dto":6592,"dimpulses":6593,"donate":6594,"ey":6595,"eure":6596,"eos":6597,"fp":6598,"ff":6599,"fw":6600,"fstat":6601,"gp":6602,"gig":6603,"gall":6604,"gop":6605,"gles":6606,"hum":6607,"hib":6608,"hom":6609,"href":6610,"huge":6611,"ia":6612,"ias":6613,"jp":6614,"jz":6615,"jed":6616,"jre":6617,"jad":6618,"jsp":6619,"kq":6620,"ker":6621,"kst":6622,"kyth":6623,"khr":6624,"kai":6625,"lu":6626,"lf":6627,"lst":6628,"lun":6629,"lvt":6630,"lccc":6631,"nil":6632,"nth":6633,"national":6634,"nsec":6635,"opp":6636,"osc":6637,"pp":6638,"pong":6639,"puid":6640,"ptypes":6641,"rr":6642,"rv":6643,"rend":6644,"rational":6645,"sam":6646,"sag":6647,"sse":6648,"say":6649,"tp":6650,"tar":6651,"tint":6652,"tension":6653,"tabb":6654,"tear":6655,"tfd":6656,"ub":6657,"uow":6658,"vo":6659,"vary":6660,"vcl":6661,"viterations":6662,"wo":6663,"wat":6664,"wtr":6665,"would":6666,"wired":6667,"were":6668,"water":6669,"wiring":6670,"yam":6671,"##eg":6672,"##eine":6673,"##net":6674,"##nection":6675,"##rt":6676,"##ras":6677,"##rest":6678,"##rans":6679,"##rant":6680,"##mer":6681,"##mas":6682,"##mass":6683,"##mapping":6684,"##margin":6685,"##mpeg":6686,"##mmsg":6687,"##mrg":6688,"##ik":6689,"##ictionary":6690,"##iptic":6691,"##lar":6692,"##lace":6693,"##limit":6694,"##lated":6695,"##laim":6696,"##day":6697,"##dom":6698,"##dier":6699,"##draw":6700,"##dictionary":6701,"##pat":6702,"##plate":6703,"##oq":6704,"##oord":6705,"##ogn":6706,"##uiv":6707,"##so":6708,"##sort":6709,"##sib":6710,"##sized":6711,"##sential":6712,"##cas":6713,"##ccess":6714,"##count":6715,"##cache":6716,"##coord":6717,"##yond":6718,"##ystem":6719,"##fil":6720,"##gm":6721,"##gy":6722,"##gress":6723,"##glish":6724,"##kg":6725,"##kip":6726,"##bit":6727,"##bic":6728,"##bum":6729,"##bles":6730,"##withm":6731,"##vc":6732,"##zone":6733,"##jvm":6734,"##44":6735,"##arat":6736,"##arder":6737,"##arsed":6738,"##ery":6739,"##ony":6740,"##atter":6741,"##atrace":6742,"##eswithm":6743,"##iness":6744,"##eterm":6745,"##etime":6746,"##orize":6747,"##ene":6748,"##env":6749,"##enic":6750,"##enance":6751,"##alic":6752,"##aligned":6753,"inode":6754,"inbox":6755,"inhibited":6756,"injvm":6757,"##itable":6758,"##itivity":6759,"##str":6760,"##stand":6761,"relic":6762,"rebo":6763,"rebuffer":6764,"reusable":6765,"revalidate":6766,"##rough":6767,"##entions":6768,"##enticated":6769,"stem":6770,"story":6771,"stap":6772,"stamping":6773,"stitch":6774,"##cell":6775,"cost":6776,"##adec":6777,"##adog":6778,"##rist":6779,"##rive":6780,"##rift":6781,"##rider":6782,"##ripped":6783,"##ricted":6784,"##ilation":6785,"debo":6786,"tos":6787,"exemp":6788,"##isation":6789,"enque":6790,"english":6791,"##abet":6792,"##abase":6793,"resist":6794,"resizing":6795,"resync":6796,"resched":6797,"vals":6798,"chr":6799,"chos":6800,"chapter":6801,"ark":6802,"arrow":6803,"arbit":6804,"arrive":6805,"##idex":6806,"##oted":6807,"##olon":6808,"adder":6809,"adding":6810,"##icolon":6811,"##imized":6812,"parens":6813,"##ultaneous":6814,"##log":6815,"somet":6816,"kept":6817,"pom":6818,"forg":6819,"forest":6820,"##els":6821,"keycode":6822,"##assigned":6823,"##acted":6824,"shake":6825,"##ersc":6826,"##ffeine":6827,"newlin":6828,"newsize":6829,"##ackag":6830,"##ackage":6831,"suitable":6832,"idn":6833,"idmass":6834,"unable":6835,"unmap":6836,"unpo":6837,"unarch":6838,"unref":6839,"unloaded":6840,"unne":6841,"unilateral":6842,"unrest":6843,"unassigned":6844,"indx":6845,"##inders":6846,"##indrome":6847,"alert":6848,"along":6849,"album":6850,"compli":6851,"composit":6852,"##embers":6853,"caffeine":6854,"confusable":6855,"upon":6856,"##endir":6857,"filed":6858,"argon":6859,"asl":6860,"aside":6861,"bypass":6862,"outline":6863,"withdraw":6864,"##jected":6865,"third":6866,"swip":6867,"swallow":6868,"##updates":6869,"starter":6870,"starred":6871,"beyond":6872,"serve":6873,"serge":6874,"spann":6875,"sprite":6876,"reminders":6877,"proposed":6878,"pread":6879,"preempt":6880,"disjo":6881,"sourcepath":6882,"prestart":6883,"scatter":6884,"multidex":6885,"decapitalize":6886,"reclaim":6887,"loaders":6888,"election":6889,"elemin":6890,"plot":6891,"design":6892,"quat":6893,"writev":6894,"usable":6895,"posix":6896,"errored":6897,"manually":6898,"##apon":6899,"expos":6900,"subset":6901,"subformat":6902,"subsequ":6903,"subqueries":6904,"descs":6905,"announ":6906,"notes":6907,"combo":6908,"natively":6909,"streamer":6910,"refine":6911,"refill":6912,"invites":6913,"invwi":6914,"##irectory":6915,"lens":6916,"exts":6917,"boo":6918,"board":6919,"boiler":6920,"linkopts":6921,"linkopt":6922,"##ailability":6923,"replier":6924,"internals":6925,"maxs":6926,"drawn":6927,"violated":6928,"rob":6929,"rope":6930,"soldier":6931,"threaded":6932,"jooq":6933,"insign":6934,"inspect":6935,"textures":6936,"commun":6937,"packaze":6938,"imass":6939,"logout":6940,"loglevel":6941,"retrans":6942,"supply":6943,"disposed":6944,"disposition":6945,"displace":6946,"floating":6947,"preflight":6948,"positional":6949,"italic":6950,"binds":6951,"currencies":6952,"traf":6953,"##aled":6954,"mediator":6955,"##access":6956,"parameteri":6957,"oversized":6958,"overrider":6959,"##encing":6960,"registerers":6961,"conventions":6962,"weigh":6963,"weapon":6964,"dirt":6965,"dirent":6966,"article":6967,"##loader":6968,"referred":6969,"referencing":6970,"customers":6971,"defrag":6972,"commander":6973,"mins":6974,"minimize":6975,"javabase":6976,"applying":6977,"extraction":6978,"##ops":6979,"##open":6980,"appender":6981,"##ongs":6982,"matte":6983,"noop":6984,"consistent":6985,"filesystem":6986,"employ":6987,"##ermark":6988,"assisted":6989,"accessors":6990,"hashes":6991,"hashers":6992,"oldest":6993,"oldsize":6994,"specifier":6995,"longs":6996,"longest":6997,"bounding":6998,"shortest":6999,"finite":7000,"posts":7001,"moving":7002,"vee":7003,"needle":7004,"consuming":7005,"extractors":7006,"afters":7007,"##ategorized":7008,"abb":7009,"thrower":7010,"glue":7011,"slip":7012,"identities":7013,"singlejar":7014,"aabbs":7015,"backed":7016,"backlink":7017,"skips":7018,"stacked":7019,"jsonb":7020,"controlled":7021,"merges":7022,"samplers":7023,"schedules":7024,"originating":7025,"owned":7026,"profiler":7027,"activities":7028,"activatable":7029,"statically":7030,"sends":7031,"sendto":7032,"sendmmsg":7033,"allocating":7034,"dynatrace":7035,"fixup":7036,"restored":7037,"reports":7038,"invocable":7039,"preparer":7040,"existence":7041,"styling":7042,"bufs":7043,"boxes":7044,"boxing":7045,"implies":7046,"msgs":7047,"receiving":7048,"looking":7049,"##aky":7050,"connectors":7051,"opening":7052,"docstring":7053,"mergeable":7054,"datetime":7055,"datadog":7056,"configurers":7057,"befores":7058,"missed":7059,"styleable":7060,"presenter":7061,"##ontended":7062,"periods":7063,"ports":7064,"certain":7065,"decoders":7066,"cleaner":7067,"basenames":7068,"assertion":7069,"fragmented":7070,"injecting":7071,"fallbacks":7072,"loopback":7073,"diameter":7074,"fetches":7075,"keepd":7076,"peep":7077,"transitively":7078,"promises":7079,"radii":7080,"blink":7081,"blending":7082,"padded":7083,"scripted":7084,"importable":7085,"diffs":7086,"##ocation":7087,"optimal":7088,"anchoring":7089,"flushed":7090,"flushing":7091,"materialize":7092,"reasons":7093,"adaptations":7094,"adaptiveness":7095,"##ogle":7096,"##ogenic":7097,"unmount":7098,"utflen":7099,"servlets":7100,"hexadec":7101,"scrolled":7102,"dumper":7103,"stubbed":7104,"combination":7105,"dups":7106,"analyz":7107,"conditionally":7108,"semicolon":7109,"listenable":7110,"previously":7111,"evaluated":7112,"stickers":7113,"booleans":7114,"installing":7115,"installation":7116,"dynamically":7117,"pinch":7118,"roles":7119,"namer":7120,"charsets":7121,"simulate":7122,"simulated":7123,"simultaneous":7124,"amr":7125,"runners":7126,"##conn":7127,"google":7128,"smile":7129,"csrf":7130,"margins":7131,"touchable":7132,"crunch":7133,"catched":7134,"rewinder":7135,"randomize":7136,"dotted":7137,"unpush":7138,"unparsed":7139,"computed":7140,"separators":7141,"drive":7142,"drivers":7143,"aggr":7144,"mdhd":7145,"protection":7146,"##irectional":7147,"monitoring":7148,"kinds":7149,"mutate":7150,"mutability":7151,"mutually":7152,"revocation":7153,"##urrence":7154,"uncategorized":7155,"uncontended":7156,"implementations":7157,"layered":7158,"mtime":7159,"attempted":7160,"ignorable":7161,"aggregator":7162,"aggregating":7163,"underrun":7164,"fractions":7165,"fractional":7166,"discarded":7167,"snd":7168,"collided":7169,"reconfig":7170,"reconnection":7171,"tailored":7172,"entered":7173,"regexes":7174,"accounting":7175,"lazily":7176,"unmodified":7177,"mixin":7178,"pssh":7179,"ticks":7180,"propagation":7181,"instantiable":7182,"degree":7183,"degenerate":7184,"decompile":7185,"escapes":7186,"singletons":7187,"fnv":7188,"halt":7189,"captions":7190,"exclusively":7191,"invokable":7192,"prerequisites":7193,"iov":7194,"megabytes":7195,"essential":7196,"jsr":7197,"lpi":7198,"macos":7199,"quotient":7200,"queen":7201,"tlvs":7202,"experiments":7203,"brake":7204,"powered":7205,"densities":7206,"fsb":7207,"eviction":7208,"superclasses":7209,"flattening":7210,"letters":7211,"saving":7212,"instrumenter":7213,"unsuccess":7214,"estimated":7215,"effective":7216,"informational":7217,"mismatches":7218,"mismatched":7219,"noneable":7220,"terabytes":7221,"##refix":7222,"enforced":7223,"unavailability":7224,"separately":7225,"shrinking":7226,"evicted":7227,"daemon":7228,"micro":7229,"combinations":7230,"udta":7231,"simplified":7232,"brackets":7233,"rtl":7234,"tmpdir":7235,"unstripped":7236,"recycled":7237,"backwards":7238,"relaxed":7239,"removals":7240,"mulsub":7241,"pdu":7242,"pdf":7243,"rebuilding":7244,"spinner":7245,"distribut":7246,"distribute":7247,"interpolator":7248,"interpolated":7249,"criter":7250,"subclasses":7251,"farthest":7252,"octet":7253,"additions":7254,"lateral":7255,"occurrence":7256,"wik":7257,"wipe":7258,"wiki":7259,"recompute":7260,"gamepads":7261,"cwd":7262,"cubem":7263,"ldamping":7264,"lots":7265,"tsgm":7266,"unboxing":7267,"preloader":7268,"prune":7269,"pruning":7270,"drafts":7271,"supplementary":7272,"spellbook":7273,"ranked":7274,"proceeding":7275,"planes":7276,"postprocessor":7277,"postprocessing":7278,"delimeter":7279,"influence":7280,"deduplicate":7281,"gapless":7282,"xsl":7283,"##addr":7284,"advertise":7285,"premade":7286,"disallowed":7287,"adjacency":7288,"purgeable":7289,"registrars":7290,"barycoord":7291,"dflt":7292,"gathering":7293,"##ernate":7294,"stroker":7295,"deallocations":7296,"residue":7297,"abandoned":7298,"enumerate":7299,"enumeration":7300,"approximate":7301,"astr":7302,"picker":7303,"treated":7304,"uninjected":7305,"unrelated":7306,"uniquifier":7307,"dominated":7308,"deobfuscation":7309,"exhausted":7310,"hsv":7311,"srhr":7312,"slop":7313,"tileset":7314,"maintain":7315,"maintenance":7316,"unqual":7317,"precedence":7318,"shortening":7319,"slides":7320,"##configurable":7321,"multiplexer":7322,"reconstruct":7323,"diagonal":7324,"concatenation":7325,"development":7326,"mkdirs":7327,"introduction":7328,"ambiguous":7329,"battery":7330,"palindrome":7331,"xdpi":7332,"paragraphs":7333,"indirectly":7334,"remotely":7335,"scissors":7336,"increasing":7337,"inconsistency":7338,"redundent":7339,"keepclasseswithm":7340,"ellip":7341,"snaks":7342,"granule":7343,"decompressor":7344,"summarizing":7345,"premultiply":7346,"passthru":7347,"germanic":7348,"bimap":7349,"ecliptic":7350,"hextets":7351,"knuth":7352,"roman":7353,"sensitivity":7354,"uleb":7355,"witness":7356,"reentrant":7357,"keeppackag":7358,"unencoded":7359,"unauthenticated":7360,"comparison":7361,"preallocate":7362,"impersonate":7363,"flirty":7364,"imgur":7365,"releasable":7366,"merging":7367,"configurators":7368,"##ontacts":7369,"coalesce":7370,"transliterate":7371,"augmented":7372,"syscalls":7373,"permanently":7374,"253":7375,"arabic":7376,"averaging":7377,"aquery":7378,"borrow":7379,"belongs":7380,"borders":7381,"dubbo":7382,"eureka":7383,"ffmpeg":7384,"gpu":7385,"gigabytes":7386,"gallery":7387,"gopkg":7388,"humio":7389,"hibernate":7390,"homogenic":7391,"jedis":7392,"kythe":7393,"kairos":7394,"lucas":7395,"lunar":7396,"rrule":7397,"saga":7398,"tabbed":7399,"watermark":7400,"wtrs":7401,"yaml":7402,"##pattern":7403,"reboot":7404,"stapler":7405,"debouncing":7406,"reschedule":7407,"chosen":7408,"arbitrary":7409,"something":7410,"newlines":7411,"unpooled":7412,"unarchive":7413,"unreflect":7414,"unnecessary":7415,"unrestricted":7416,"compliant":7417,"sergeant":7418,"spannable":7419,"disjoint":7420,"eleminate":7421,"boilerplate":7422,"insignificant":7423,"displacement":7424,"employee":7425,"hexadecimal":7426,"unsuccessful":7427,"01":7428,"11":7429,"42":7430,"444":7431,"77":7432,"ah":7433,"aq":7434,"aer":7435,"ace":7436,"aec":7437,"aop":7438,"arow":7439,"aarch":7440,"ahr":7441,"bf":7442,"bg":7443,"bal":7444,"bst":7445,"bow":7446,"bone":7447,"bson":7448,"bio":7449,"burn":7450,"bending":7451,"bcp":7452,"bcc":7453,"bwt":7454,"bnd":7455,"bilateral":7456,"bene":7457,"cx":7458,"car":7459,"cst":7460,"cim":7461,"city":7462,"cull":7463,"civ":7464,"care":7465,"cjk":7466,"cxt":7467,"cupdates":7468,"dg":7469,"don":7470,"dtr":7471,"dtp":7472,"dill":7473,"dval":7474,"diterations":7475,"dsequ":7476,"dgram":7477,"ec":7478,"eh":7479,"ej":7480,"eig":7481,"ech":7482,"eff":7483,"east":7484,"eoc":7485,"eoi":7486,"easing":7487,"ft":7488,"fro":7489,"fch":7490,"fur":7491,"fis":7492,"fab":7493,"few":7494,"fus":7495,"fft":7496,"fund":7497,"fld":7498,"fuse":7499,"ftime":7500,"fps":7501,"fopen":7502,"gi":7503,"gate":7504,"got":7505,"give":7506,"gang":7507,"gain":7508,"gree":7509,"gram":7510,"gte":7511,"hw":7512,"hat":7513,"hess":7514,"how":7515,"held":7516,"here":7517,"having":7518,"ix":7519,"iot":7520,"iff":7521,"iwi":7522,"je":7523,"jl":7524,"jt":7525,"jc":7526,"km":7527,"kd":7528,"kc":7529,"kth":7530,"karat":7531,"ln":7532,"lr":7533,"lw":7534,"ler":7535,"lint":7536,"lum":7537,"lru":7538,"lsc":7539,"lite":7540,"lstat":7541,"lkhd":7542,"mi":7543,"mh":7544,"mst":7545,"mur":7546,"mun":7547,"mim":7548,"mind":7549,"mib":7550,"might":7551,"mcast":7552,"made":7553,"munch":7554,"mren":7555,"malloc":7556,"mangle":7557,"munge":7558,"mrg":7559,"nr":7560,"nv":7561,"ning":7562,"npe":7563,"nub":7564,"npro":7565,"nominator":7566,"ngram":7567,"nqueries":7568,"nulled":7569,"ncell":7570,"ow":7571,"ora":7572,"ois":7573,"oos":7574,"ocl":7575,"ome":7576,"pn":7577,"pm":7578,"py":7579,"pq":7580,"pem":7581,"pac":7582,"ppi":7583,"pulled":7584,"qc":7585,"qnames":7586,"ran":7587,"rail":7588,"rpath":7589,"rating":7590,"rise":7591,"sx":7592,"sz":7593,"sst":7594,"sler":7595,"senc":7596,"sites":7597,"sift":7598,"sget":7599,"tm":7600,"tf":7601,"tel":7602,"tild":7603,"tast":7604,"tender":7605,"tiled":7606,"till":7607,"tiff":7608,"tts":7609,"turb":7610,"tkhd":7611,"tuple":7612,"upt":7613,"vr":7614,"vg":7615,"vet":7616,"vst":7617,"vul":7618,"vect":7619,"vac":7620,"vcard":7621,"vps":7622,"vfs":7623,"wire":7624,"weld":7625,"wash":7626,"xch":7627,"xop":7628,"xfer":7629,"xpos":7630,"xscale":7631,"yu":7632,"ys":7633,"yz":7634,"yet":7635,"ypr":7636,"yscale":7637,"zh":7638,"zx":7639,"zid":7640,"zos":7641,"zie":7642,"zomb":7643,"##eared":7644,"##earch":7645,"##epth":7646,"##eval":7647,"##eets":7648,"##eaky":7649,"##non":7650,"##node":7651,"##night":7652,"##note":7653,"##ncessary":7654,"##rad":7655,"##rus":7656,"##rors":7657,"##ratic":7658,"##mar":7659,"##mat":7660,"##mur":7661,"##mode":7662,"##mand":7663,"##mask":7664,"##mark":7665,"##mended":7666,"##membernames":7667,"##morphic":7668,"##members":7669,"##iag":7670,"##ians":7671,"##ipped":7672,"##aa":7673,"##aver":7674,"##lr":7675,"##larg":7676,"##lif":7677,"##lide":7678,"##ds":7679,"##dy":7680,"##df":7681,"##pn":7682,"##pub":7683,"##pond":7684,"##oo":7685,"##oint":7686,"##oub":7687,"##ouple":7688,"##uck":7689,"##urist":7690,"##tas":7691,"##text":7692,"##tect":7693,"##trib":7694,"##tone":7695,"##top":7696,"##tach":7697,"##tics":7698,"##tuce":7699,"##ssl":7700,"##cn":7701,"##cence":7702,"##cont":7703,"##ys":7704,"##fi":7705,"##fl":7706,"##fp":7707,"##fo":7708,"##fw":7709,"##fx":7710,"##fif":7711,"##fact":7712,"##fined":7713,"##ga":7714,"##gro":7715,"##gent":7716,"##gid":7717,"##gler":7718,"##gart":7719,"##generate":7720,"##hp":7721,"##hup":7722,"##hape":7723,"##hension":7724,"##host":7725,"##kd":7726,"##kari":7727,"##bl":7728,"##bes":7729,"##byn":7730,"##bling":7731,"##break":7732,"##wers":7733,"##wait":7734,"##vine":7735,"##vote":7736,"##vables":7737,"##vari":7738,"##volume":7739,"##xels":7740,"##zen":7741,"##zero":7742,"##zier":7743,"##jgl":7744,"##junction":7745,"##74":7746,"##arm":7747,"##aract":7748,"##arily":7749,"##eres":7750,"##ering":7751,"##eric":7752,"##erous":7753,"##ergy":7754,"##onic":7755,"##atest":7756,"##attr":7757,"##ativ":7758,"##atives":7759,"##attrib":7760,"##arging":7761,"##ese":7762,"##inize":7763,"##inance":7764,"##inish":7765,"##eth":7766,"##etect":7767,"##etype":7768,"##ette":7769,"##ethreads":7770,"##orth":7771,"##enable":7772,"##enish":7773,"##ensed":7774,"##ley":7775,"##lease":7776,"##leaf":7777,"inhib":7778,"inaccess":7779,"##itr":7780,"##itial":7781,"##ances":7782,"##anoid":7783,"##ancing":7784,"##ctype":7785,"##ctured":7786,"##edcol":7787,"conclud":7788,"rear":7789,"reass":7790,"reus":7791,"reused":7792,"rekey":7793,"recheck":7794,"reeval":7795,"##odetect":7796,"##revi":7797,"##reme":7798,"##repan":7799,"##rehension":7800,"##amargin":7801,"##rope":7802,"##entry":7803,"##uted":7804,"##utting":7805,"##utinize":7806,"stm":7807,"stv":7808,"staging":7809,"stbl":7810,"stamargin":7811,"bto":7812,"btmb":7813,"btype":7814,"##ception":7815,"##asic":7816,"cos":7817,"coil":7818,"cool":7819,"coup":7820,"cofa":7821,"could":7822,"covari":7823,"##exform":7824,"##pection":7825,"##rim":7826,"##rip":7827,"##riate":7828,"##rices":7829,"##ulus":7830,"##ulating":7831,"##ilter":7832,"##iline":7833,"devi":7834,"##igts":7835,"##chase":7836,"toc":7837,"toward":7838,"tofd":7839,"##ationdictionary":7840,"exn":7841,"##ury":7842,"enlarg":7843,"energy":7844,"cln":7845,"clash":7846,"claim":7847,"##aggress":7848,"##ably":7849,"tyrus":7850,"adler":7851,"resy":7852,"resx":7853,"resum":7854,"resem":7855,"restr":7856,"resumed":7857,"reselect":7858,"research":7859,"valve":7860,"valued":7861,"chat":7862,"chown":7863,"charging":7864,"chitr":7865,"arn":7866,"arsc":7867,"##idence":7868,"##idirectional":7869,"##otion":7870,"##otten":7871,"##estimated":7872,"typeface":7873,"loose":7874,"lomb":7875,"##oline":7876,"##olution":7877,"##olog":7878,"##ication":7879,"##icles":7880,"##iculated":7881,"##icograph":7882,"##unami":7883,"mav":7884,"##odel":7885,"fiat":7886,"paranoid":7887,"getenv":7888,"anom":7889,"##loats":7890,"##ifted":7891,"pound":7892,"forget":7893,"forcing":7894,"meters":7895,"##eliver":7896,"##elines":7897,"onconnect":7898,"##actor":7899,"shim":7900,"shorter":7901,"shifted":7902,"##ersive":7903,"##ersistent":7904,"##umgart":7905,"doctype":7906,"##ffset":7907,"##ques":7908,"##quence":7909,"newp":7910,"newlen":7911,"colon":7912,"colsp":7913,"consts":7914,"contextual":7915,"contextually":7916,"classic":7917,"classifiers":7918,"idt":7919,"idc":7920,"idraw":7921,"unsp":7922,"unret":7923,"uncon":7924,"unions":7925,"unapp":7926,"unlimit":7927,"unaligned":7928,"unncessary":7929,"unidirectional":7930,"indentation":7931,"indef":7932,"##ively":7933,"##indent":7934,"alen":7935,"alter":7936,"alone":7937,"altered":7938,"also":7939,"alpn":7940,"alarm":7941,"comps":7942,"comparable":7943,"comprehension":7944,"indexbase":7945,"##enerac":7946,"##emis":7947,"##anger":7948,"##angles":7949,"cake":7950,"confidence":7951,"upvote":7952,"atan":7953,"atype":7954,"trn":7955,"tramp":7956,"truth":7957,"trangle":7958,"sei":7959,"sea":7960,"seal":7961,"sealed":7962,"handset":7963,"listing":7964,"configed":7965,"configurable":7966,"infile":7967,"inflight":7968,"strg":7969,"stradd":7970,"filegro":7971,"obstru":7972,"fromfd":7973,"ask":7974,"asym":7975,"outbox":7976,"outfile":7977,"outstand":7978,"thr":7979,"things":7980,"thrift":7981,"these":7982,"timelines":7983,"##rites":7984,"readv":7985,"readme":7986,"readlink":7987,"messager":7988,"attain":7989,"transience":7990,"checkbox":7991,"bearer":7992,"bezier":7993,"heif":7994,"heurist":7995,"serperator":7996,"spu":7997,"spent":7998,"spine":7999,"spanning":8000,"spdy":8001,"##owby":8002,"appy":8003,"approp":8004,"updating":8005,"##itionally":8006,"inited":8007,"stringify":8008,"softkey":8009,"preorder":8010,"disables":8011,"##ribable":8012,"regs":8013,"regenerate":8014,"##ubbed":8015,"##ecoded":8016,"collator":8017,"colline":8018,"timeac":8019,"timezone":8020,"scram":8021,"scrim":8022,"multiline":8023,"decal":8024,"decide":8025,"decouple":8026,"recom":8027,"recvm":8028,"codeflow":8029,"codegen":8030,"deselect":8031,"sizeof":8032,"sizeleft":8033,"writeback":8034,"opath":8035,"opendir":8036,"opmode":8037,"fieldref":8038,"execv":8039,"execroot":8040,"mant":8041,"##aped":8042,"numfaces":8043,"trick":8044,"eventually":8045,"##usted":8046,"subc":8047,"subframe":8048,"subprocess":8049,"subsample":8050,"subcom":8051,"descent":8052,"describable":8053,"annex":8054,"##ommit":8055,"##ometer":8056,"##omodel":8057,"grouper":8058,"worst":8059,"heading":8060,"refused":8061,"refilter":8062,"##ructured":8063,"counted":8064,"counting":8065,"resolving":8066,"encoun":8067,"encaps":8068,"leq":8069,"defaulted":8070,"intro":8071,"extreme":8072,"##keep":8073,"linkmap":8074,"instr":8075,"repack":8076,"replic":8077,"repair":8078,"validations":8079,"visually":8080,"directed":8081,"directives":8082,"flight":8083,"ures":8084,"urgent":8085,"maxlength":8086,"maximized":8087,"maxlif":8088,"maxvolume":8089,"excepts":8090,"curator":8091,"localize":8092,"localizations":8093,"##ientific":8094,"exceptional":8095,"deposit":8096,"##osite":8097,"solr":8098,"solo":8099,"solid":8100,"solution":8101,"##eshow":8102,"##ampled":8103,"linebreak":8104,"viewing":8105,"textarget":8106,"textbox":8107,"##ivision":8108,"##ivisor":8109,"packaging":8110,"packaged":8111,"ime":8112,"ima":8113,"initialise":8114,"logfile":8115,"##clave":8116,"operate":8117,"visitations":8118,"contention":8119,"runfile":8120,"suppression":8121,"##liclib":8122,"dispather":8123,"perms":8124,"periph":8125,"positioning":8126,"binders":8127,"traced":8128,"traversed":8129,"prices":8130,"prize":8131,"actors":8132,"median":8133,"overload":8134,"overview":8135,"overhead":8136,"useful":8137,"nextsib":8138,"convolution":8139,"weaving":8140,"weaver":8141,"weigts":8142,"dirname":8143,"bitap":8144,"bitonic":8145,"artwork":8146,"articulated":8147,"artemis":8148,"##typ":8149,"##area":8150,"##eper":8151,"clearance":8152,"managers":8153,"modifiable":8154,"modern":8155,"modulus":8156,"operators":8157,"referent":8158,"referee":8159,"customized":8160,"paid":8161,"defect":8162,"bvolume":8163,"##pective":8164,"##phen":8165,"##phone":8166,"skid":8167,"minv":8168,"versioned":8169,"autodetect":8170,"firstch":8171,"firstgid":8172,"angles":8173,"matrices":8174,"noise":8175,"##achable":8176,"##ride":8177,"marks":8178,"mshp":8179,"containment":8180,"##lia":8181,"##liest":8182,"assumed":8183,"accesslog":8184,"normally":8185,"objs":8186,"emptying":8187,"##oked":8188,"##spot":8189,"edts":8190,"oldp":8191,"oldlen":8192,"temps":8193,"paired":8194,"speculative":8195,"toolpath":8196,"querystring":8197,"constructed":8198,"playout":8199,"playhead":8200,"saiz":8201,"saio":8202,"vertice":8203,"vertically":8204,"shorts":8205,"ctime":8206,"singular":8207,"very":8208,"posted":8209,"posting":8210,"postables":8211,"postorder":8212,"moof":8213,"displayer":8214,"displayed":8215,"nonconfigurable":8216,"serializing":8217,"orient":8218,"avc":8219,"avas":8220,"protoc":8221,"failing":8222,"treeify":8223,"downgr":8224,"dbs":8225,"fract":8226,"renderables":8227,"functionizable":8228,"incr":8229,"##ularity":8230,"ability":8231,"abutting":8232,"replenish":8233,"ctxt":8234,"glfw":8235,"slf":8236,"slav":8237,"declined":8238,"calculator":8239,"debugs":8240,"identification":8241,"https":8242,"dexes":8243,"dexed":8244,"definite":8245,"axes":8246,"unite":8247,"signatures":8248,"webvt":8249,"backsl":8250,"bitmaps":8251,"discarder":8252,"discrepan":8253,"controllers":8254,"sampling":8255,"profiled":8256,"actives":8257,"activating":8258,"releasepair":8259,"sending":8260,"alloca":8261,"dynmargin":8262,"fixdown":8263,"notifying":8264,"ccs":8265,"ccw":8266,"relational":8267,"relativ":8268,"monkey":8269,"opted":8270,"optics":8271,"production":8272,"vectored":8273,"realpath":8274,"cancelling":8275,"toplevel":8276,"expanding":8277,"expandable":8278,"algorithmic":8279,"existed":8280,"bufoffset":8281,"pushed":8282,"pushing":8283,"payee":8284,"boxset":8285,"succ":8286,"preset":8287,"presence":8288,"casts":8289,"casted":8290,"fdbvt":8291,"##ondition":8292,"stripping":8293,"locks":8294,"phony":8295,"phys":8296,"candle":8297,"##aking":8298,"century":8299,"sorting":8300,"expects":8301,"searchable":8302,"openat":8303,"openssl":8304,"fullname":8305,"grain":8306,"deltas":8307,"mockable":8308,"emulated":8309,"splitting":8310,"mispl":8311,"completely":8312,"presents":8313,"ssm":8314,"lookups":8315,"##ontrol":8316,"portion":8317,"stops":8318,"redef":8319,"redacted":8320,"apn":8321,"apng":8322,"distances":8323,"uniq":8324,"autogenerate":8325,"engines":8326,"binner":8327,"futimes":8328,"twice":8329,"globber":8330,"globally":8331,"globbing":8332,"##sheet":8333,"observables":8334,"expecteds":8335,"injects":8336,"condensed":8337,"archai":8338,"aliasing":8339,"keeps":8340,"warp":8341,"storei":8342,"xmlns":8343,"exited":8344,"quals":8345,"intents":8346,"incremented":8347,"mev":8348,"mehd":8349,"masking":8350,"compilable":8351,"subtit":8352,"subtable":8353,"subtrees":8354,"importing":8355,"shutting":8356,"shutwait":8357,"externalizable":8358,"sdt":8359,"person":8360,"persons":8361,"##ocus":8362,"excluding":8363,"translations":8364,"declares":8365,"declarers":8366,"optimizations":8367,"emitted":8368,"chained":8369,"chaining":8370,"materialized":8371,"leftover":8372,"networker":8373,"pkm":8374,"pkce":8375,"adaptclass":8376,"repositories":8377,"adjoint":8378,"unmask":8379,"unmapped":8380,"accura":8381,"finalized":8382,"finalizers":8383,"invalidating":8384,"batched":8385,"corres":8386,"corethreads":8387,"corasic":8388,"advanced":8389,"advancing":8390,"iterators":8391,"elt":8392,"pointerv":8393,"exchanger":8394,"begins":8395,"publishing":8396,"publishers":8397,"##value":8398,"scrolling":8399,"vehicles":8400,"dupdates":8401,"analytics":8402,"fixeds":8403,"fixedleft":8404,"semi":8405,"polymorphic":8406,"evaluating":8407,"immersive":8408,"annotable":8409,"annotatable":8410,"actuals":8411,"destinationlength":8412,"scrutinize":8413,"massmat":8414,"##obfusc":8415,"##obytes":8416,"uploaded":8417,"scala":8418,"utilities":8419,"documented":8420,"pins":8421,"schemaful":8422,"americ":8423,"brand":8424,"brute":8425,"##center":8426,"##ference":8427,"shaders":8428,"switching":8429,"runnables":8430,"cfs":8431,"##conf":8432,"creds":8433,"credit":8434,"runtimes":8435,"smeared":8436,"literals":8437,"receipts":8438,"pkgs":8439,"signaling":8440,"duplicated":8441,"performance":8442,"specificity":8443,"loggable":8444,"csi":8445,"seeking":8446,"seekable":8447,"proguarded":8448,"removable":8449,"weekday":8450,"advised":8451,"bundles":8452,"retaining":8453,"negated":8454,"negatives":8455,"breakable":8456,"crush":8457,"circles":8458,"catches":8459,"catching":8460,"hikari":8461,"lift":8462,"rewinding":8463,"dots":8464,"unpark":8465,"unprefix":8466,"computational":8467,"terminating":8468,"bootstrapper":8469,"sentin":8470,"deleter":8471,"answers":8472,"bigger":8473,"reduced":8474,"bridged":8475,"mdta":8476,"toggled":8477,"protector":8478,"captures":8479,"capturing":8480,"mutation":8481,"torques":8482,"alphabet":8483,"revolute":8484,"revoked":8485,"uncommit":8486,"sparses":8487,"implementer":8488,"drunk":8489,"mtf":8490,"authorize":8491,"aggregation":8492,"contribute":8493,"atomic":8494,"discarding":8495,"emails":8496,"renameat":8497,"sneaky":8498,"snoo":8499,"coordinator":8500,"recons":8501,"prefetcher":8502,"prefetching":8503,"dts":8504,"dtos":8505,"fonts":8506,"entering":8507,"uniforms":8508,"thumbs":8509,"regexp":8510,"deserialization":8511,"detecting":8512,"detectors":8513,"mvhd":8514,"clockwise":8515,"jacobians":8516,"rowskip":8517,"followed":8518,"tickets":8519,"temporarily":8520,"restarting":8521,"instantiated":8522,"guice":8523,"sleb":8524,"zooke":8525,"##initely":8526,"degenerac":8527,"decompilation":8528,"divadd":8529,"upgrad":8530,"handshaker":8531,"invitee":8532,"overlaps":8533,"cmdline":8534,"mirrors":8535,"pico":8536,"seeds":8537,"prereq":8538,"statsd":8539,"lambdas":8540,"sleeper":8541,"zoomable":8542,"inclusiveness":8543,"approved":8544,"whitespaces":8545,"bucketed":8546,"encloses":8547,"invokes":8548,"specialized":8549,"guesser":8550,"cased":8551,"acks":8552,"esds":8553,"larger":8554,"tetras":8555,"admins":8556,"administer":8557,"undeclared":8558,"undeterm":8559,"undersc":8560,"divider":8561,"lps":8562,"lpc":8563,"lsd":8564,"lsb":8565,"watchers":8566,"watchos":8567,"unwanted":8568,"indented":8569,"indentifier":8570,"thrott":8571,"filesets":8572,"hierarchical":8573,"walkable":8574,"beta":8575,"shifts":8576,"heapify":8577,"quota":8578,"expansions":8579,"greatest":8580,"tlv":8581,"##escing":8582,"brace":8583,"pcre":8584,"##ucture":8585,"fingerprints":8586,"blobs":8587,"cds":8588,"drops":8589,"fsvc":8590,"stopper":8591,"flashlight":8592,"dependents":8593,"unwrapped":8594,"lettuce":8595,"##height":8596,"structure":8597,"deferedcol":8598,"wildcards":8599,"earliest":8600,"hyphen":8601,"reneg":8602,"indicies":8603,"indicates":8604,"growing":8605,"suggestion":8606,"suggestions":8607,"dontnote":8608,"pidx":8609,"psequence":8610,"rdate":8611,"rdep":8612,"recoverable":8613,"sandboxfs":8614,"justification":8615,"licences":8616,"mlen":8617,"microph":8618,"ranged":8619,"##ything":8620,"equivalents":8621,"workarounds":8622,"fixtures":8623,"dsa":8624,"uds":8625,"shuffled":8626,"transporter":8627,"quadratic":8628,"subdirectory":8629,"subdivision":8630,"represent":8631,"bracketed":8632,"eagerly":8633,"mpsc":8634,"ndamping":8635,"ndbvt":8636,"ndoub":8637,"rtf":8638,"rtxt":8639,"##filecont":8640,"forks":8641,"unstubbed":8642,"unstructured":8643,"animators":8644,"shadows":8645,"issuers":8646,"horizontally":8647,"supertypes":8648,"hdlr":8649,"purchase":8650,"deactivated":8651,"questions":8652,"producible":8653,"predefined":8654,"accelerated":8655,"accelerations":8656,"accelerometer":8657,"unlocked":8658,"subroutines":8659,"introspection":8660,"operands":8661,"overlays":8662,"speakerphone":8663,"templated":8664,"enforcement":8665,"affixes":8666,"bsd":8667,"promotion":8668,"predicted":8669,"routine":8670,"measurement":8671,"gcj":8672,"hangul":8673,"paste":8674,"rcontacts":8675,"vsync":8676,"unfinish":8677,"unfocus":8678,"alternating":8679,"subpackage":8680,"overwrit":8681,"automatically":8682,"destruct":8683,"warmup":8684,"wizards":8685,"cube":8686,"fair":8687,"gyear":8688,"ldivisor":8689,"muxer":8690,"omitted":8691,"tsunami":8692,"your":8693,"unboxable":8694,"unescaped":8695,"recenter":8696,"scrubber":8697,"everything":8698,"fqcn":8699,"hotspot":8700,"icu":8701,"ics":8702,"icontrol":8703,"lexical":8704,"lexicograph":8705,"ringtone":8706,"svg":8707,"##jars":8708,"procedures":8709,"mounts":8710,"restrict":8711,"summing":8712,"summaries":8713,"prototypes":8714,"tvos":8715,"dequeued":8716,"unlinkat":8717,"explan":8718,"explode":8719,"explain":8720,"aborting":8721,"periodically":8722,"subprotocols":8723,"nfc":8724,"nfkd":8725,"nfloats":8726,"pragmas":8727,"deallocated":8728,"probes":8729,"probable":8730,"probably":8731,"bugpattern":8732,"invariable":8733,"rooms":8734,"unprotect":8735,"mentioned":8736,"occurred":8737,"asynchronously":8738,"treat":8739,"vcf":8740,"vcount":8741,"##strings":8742,"unrefer":8743,"unreachable":8744,"interpreter":8745,"integrated":8746,"dominance":8747,"dominates":8748,"unconditionally":8749,"associate":8750,"exhaustive":8751,"slope":8752,"ttl":8753,"ttf":8754,"tcache":8755,"##suba":8756,"stsd":8757,"coalescing":8758,"armor":8759,"unquoted":8760,"framexform":8761,"disposal":8762,"shortened":8763,"shortcuts":8764,"slideshow":8765,"correlation":8766,"reconstruction":8767,"diagonalize":8768,"concatenate":8769,"circumcenter":8770,"developers":8771,"introduces":8772,"tetrahedrons":8773,"ambient":8774,"baos":8775,"baumgart":8776,"battach":8777,"benchmark":8778,"holdability":8779,"kingdom":8780,"midnight":8781,"pwrite":8782,"palette":8783,"qsign":8784,"qidx":8785,"widevine":8786,"##raryclass":8787,"remotable":8788,"initiate":8789,"initiation":8790,"scissor":8791,"quiesce":8792,"quiescence":8793,"parentheses":8794,"parenthesize":8795,"increments":8796,"inconsistent":8797,"redundant":8798,"granularity":8799,"dylibs":8800,"sysctlbyn":8801,"premultiplied":8802,"passthrough":8803,"dlc":8804,"dangling":8805,"dangerous":8806,"europe":8807,"etc":8808,"etag":8809,"kilobytes":8810,"milli":8811,"ntv":8812,"rmi":8813,"team":8814,"wtf":8815,"wgs":8816,"wgh":8817,"##digits":8818,"rebind":8819,"unselected":8820,"threw":8821,"threats":8822,"erasure":8823,"dragged":8824,"primes":8825,"parameterfv":8826,"whitelist":8827,"whitelisted":8828,"entirely":8829,"determinant":8830,"deterministic":8831,"superinterface":8832,"superinterfaces":8833,"adaptresourcefil":8834,"adaptresourcefilecont":8835,"eliminate":8836,"eliminated":8837,"crosstools":8838,"tdoty":8839,"orphaned":8840,"048":8841,"ajax":8842,"apostrophe":8843,"breadth":8844,"dagger":8845,"dolby":8846,"eyear":8847,"fwd":8848,"fstatat":8849,"jzfile":8850,"jadx":8851,"kerning":8852,"opposite":8853,"rendition":8854,"rationality":8855,"tpersistent":8856,"tfdt":8857,"ubyte":8858,"voxels":8859,"varyings":8860,"##ikel":8861,"##ognized":8862,"rebuffering":8863,"exemplar":8864,"enqueued":8865,"resistant":8866,"forgotten":8867,"swiped":8868,"preemptible":8869,"designated":8870,"exposure":8871,"subsequent":8872,"announced":8873,"robust":8874,"communication":8875,"weigher":8876,"dirtiness":8877,"abbrevi":8878,"keepdirectories":8879,"reconfigure":8880,"distributing":8881,"criteria":8882,"wikibase":8883,"cubemaps":8884,"keepclasseswithmembernames":8885,"ellipsize":8886,"keeppackagenames":8887,"779":8888,"aho":8889,"aqq":8890,"aeromodel":8891,"arows":8892,"balanced":8893,"bowl":8894,"burnikel":8895,"beneath":8896,"carry":8897,"civil":8898,"cjkv":8899,"cxtor":8900,"dtpng":8901,"dsequence":8902,"ejb":8903,"eigen":8904,"echo":8905,"effort":8906,"eastern":8907,"frozen":8908,"furthest":8909,"fission":8910,"fusion":8911,"funds":8912,"giant":8913,"gateway":8914,"goto":8915,"ganglia":8916,"greek":8917,"grammar":8918,"hessian":8919,"iothreads":8920,"kdop":8921,"karatsuba":8922,"lwjgl":8923,"lerp":8924,"luminance":8925,"murmur":8926,"mcastaddr":8927,"mrenclave":8928,"nprobes":8929,"ncells":8930,"ows":8931,"oracle":8932,"omega":8933,"pacific":8934,"slerp":8935,"tfhd":8936,"turbine":8937,"uptime":8938,"veto":8939,"vectors":8940,"yzx":8941,"zxy":8942,"ziegler":8943,"zombie":8944,"##nonpub":8945,"##ponding":8946,"##fifo":8947,"##aracters":8948,"##attribute":8949,"##enabled":8950,"inhibit":8951,"inaccessible":8952,"concluded":8953,"reassign":8954,"cofac":8955,"deviation":8956,"enlarge":8957,"##aggressively":8958,"resumable":8959,"resembles":8960,"restructure":8961,"lombok":8962,"anomaly":8963,"colspan":8964,"unapplied":8965,"unlimited":8966,"indefinitely":8967,"trampoline":8968,"straddling":8969,"filegroup":8970,"obstruction":8971,"outstanding":8972,"attains":8973,"appropriate":8974,"collinear":8975,"timeacc":8976,"scramble":8977,"recommended":8978,"recvmmsg":8979,"deselected":8980,"subcommand":8981,"##keeping":8982,"maxlife":8983,"##liclibraryclass":8984,"peripheral":8985,"oldlenp":8986,"toolpaths":8987,"webvtt":8988,"backslash":8989,"discrepancy":8990,"releasepaircache":8991,"relativized":8992,"misplaced":8993,"redefine":8994,"archaius":8995,"adaptclassstrings":8996,"accuracy":8997,"corresponding":8998,"massmatrix":8999,"##obfuscationdictionary":9000,"uncommitted":9001,"sparsesdf":9002,"snooze":9003,"zookeeper":9004,"degeneracies":9005,"undetermined":9006,"underscore":9007,"deferedcollide":9008,"renegoti":9009,"microphone":9010,"ndoubles":9011,"unfinished":9012,"lexicographical":9013,"baumgarte":9014,"sysctlbyname":9015,"european":9016,"adaptresourcefilenames":9017,"adaptresourcefilecontents":9018,"voxelsz":9019,"##nonpubliclibraryclass":9020,"02":9021,"03":9022,"22":9023,"39":9024,"46":9025,"474":9026,"55":9027,"65":9028,"63":9029,"70":9030,"98":9031,"97":9032,"96":9033,"ak":9034,"ait":9035,"aad":9036,"aab":9037,"apt":9038,"ault":9039,"aff":9040,"aput":9041,"aust":9042,"agn":9043,"ams":9044,"aug":9045,"aster":9046,"bm":9047,"bc":9048,"ber":9049,"bre":9050,"bur":9051,"bis":9052,"bmp":9053,"blo":9054,"bir":9055,"brit":9056,"bip":9057,"bann":9058,"bface":9059,"bill":9060,"blit":9061,"bsh":9062,"bake":9063,"bell":9064,"bfaces":9065,"borted":9066,"bomb":9067,"bird":9068,"cn":9069,"cz":9070,"cen":9071,"cce":9072,"cri":9073,"cve":9074,"cid":9075,"cse":9076,"cru":9077,"cwn":9078,"cork":9079,"cpr":9080,"crate":9081,"cnames":9082,"cne":9083,"craw":9084,"cxx":9085,"cars":9086,"coder":9087,"dal":9088,"dod":9089,"dam":9090,"dream":9091,"dail":9092,"dload":9093,"dms":9094,"dvm":9095,"dll":9096,"dfs":9097,"duck":9098,"ei":9099,"ea":9100,"ew":9101,"ez":9102,"ein":9103,"eal":9104,"ere":9105,"eis":9106,"eag":9107,"eject":9108,"eld":9109,"eph":9110,"effic":9111,"fh":9112,"fk":9113,"fx":9114,"fan":9115,"fse":9116,"fpp":9117,"fff":9118,"fack":9119,"ftr":9120,"fine":9121,"fbo":9122,"fog":9123,"fpath":9124,"fused":9125,"fupdates":9126,"ftyp":9127,"gm":9128,"gt":9129,"gz":9130,"gar":9131,"gin":9132,"gion":9133,"gal":9134,"gam":9135,"gas":9136,"gel":9137,"gem":9138,"gend":9139,"gray":9140,"gold":9141,"gender":9142,"gms":9143,"gob":9144,"ginger":9145,"gpos":9146,"gps":9147,"ha":9148,"hl":9149,"hu":9150,"hc":9151,"hh":9152,"hb":9153,"hx":9154,"han":9155,"ham":9156,"hid":9157,"hay":9158,"hone":9159,"hget":9160,"hsize":9161,"hrs":9162,"hops":9163,"ie":9164,"iy":9165,"ik":9166,"iw":9167,"ist":9168,"ilo":9169,"iib":9170,"iiv":9171,"iia":9172,"iee":9173,"iget":9174,"iinc":9175,"iuiv":9176,"ja":9177,"jb":9178,"jw":9179,"jod":9180,"jce":9181,"jol":9182,"jun":9183,"jel":9184,"jib":9185,"jos":9186,"jpl":9187,"jpi":9188,"jstack":9189,"jgen":9190,"kp":9191,"ky":9192,"kh":9193,"kx":9194,"kat":9195,"kit":9196,"kmp":9197,"kid":9198,"kern":9199,"lg":9200,"lz":9201,"lut":9202,"lri":9203,"lis":9204,"lse":9205,"land":9206,"lack":9207,"lac":9208,"lload":9209,"lsh":9210,"lely":9211,"lbuf":9212,"lget":9213,"lte":9214,"lvalue":9215,"mr":9216,"mu":9217,"mate":9218,"mata":9219,"mpt":9220,"mint":9221,"mort":9222,"mlock":9223,"mine":9224,"mfe":9225,"mia":9226,"mgr":9227,"mll":9228,"mpeg":9229,"mrs":9230,"maddr":9231,"nm":9232,"nl":9233,"nu":9234,"nh":9235,"nul":9236,"nif":9237,"nine":9238,"nop":9239,"nto":9240,"nsp":9241,"nger":9242,"ntp":9243,"nlink":9244,"nopic":9245,"nptype":9246,"north":9247,"oa":9248,"ol":9249,"ou":9250,"oj":9251,"oul":9252,"oec":9253,"oust":9254,"ota":9255,"omission":9256,"oob":9257,"ooffset":9258,"pu":9259,"pod":9260,"pce":9261,"pul":9262,"pch":9263,"pun":9264,"pang":9265,"pure":9266,"pcl":9267,"pph":9268,"pill":9269,"pms":9270,"pton":9271,"pie":9272,"ppos":9273,"pmatch":9274,"pnd":9275,"panning":9276,"ppl":9277,"piterations":9278,"pne":9279,"pfx":9280,"please":9281,"qd":9282,"ri":9283,"rl":9284,"rk":9285,"rz":9286,"rer":9287,"ram":9288,"rab":9289,"rint":9290,"rth":9291,"rset":9292,"rain":9293,"rare":9294,"rto":9295,"rli":9296,"rloc":9297,"rere":9298,"rates":9299,"rcode":9300,"rclass":9301,"rmd":9302,"ringer":9303,"rtype":9304,"rather":9305,"rich":9306,"rhand":9307,"si":9308,"sj":9309,"sal":9310,"sack":9311,"sect":9312,"sip":9313,"sail":9314,"sized":9315,"sles":9316,"ssp":9317,"sorter":9318,"sie":9319,"sia":9320,"sfd":9321,"sizing":9322,"sallow":9323,"sense":9324,"sroot":9325,"sier":9326,"ssth":9327,"svalue":9328,"tat":9329,"targ":9330,"tan":9331,"tod":9332,"tent":9333,"tul":9334,"tur":9335,"tib":9336,"tide":9337,"tell":9338,"tclass":9339,"tie":9340,"tmin":9341,"tmd":9342,"tee":9343,"tapped":9344,"tccc":9345,"taking":9346,"ul":9347,"uo":9348,"uc":9349,"ug":9350,"uj":9351,"uset":9352,"uiv":9353,"uio":9354,"uloc":9355,"ucp":9356,"umin":9357,"ult":9358,"ukey":9359,"ulp":9360,"umask":9361,"vt":9362,"vb":9363,"van":9364,"vam":9365,"vision":9366,"vamp":9367,"vav":9368,"vmin":9369,"vdir":9370,"vrf":9371,"won":9372,"wst":9373,"wter":9374,"west":9375,"wic":9376,"wif":9377,"wang":9378,"wom":9379,"wine":9380,"wound":9381,"wish":9382,"wont":9383,"wield":9384,"wtime":9385,"wscale":9386,"wby":9387,"wxx":9388,"wfi":9389,"wowby":9390,"xp":9391,"xh":9392,"xv":9393,"xor":9394,"xval":9395,"xbox":9396,"xstream":9397,"xhd":9398,"xhr":9399,"xzy":9400,"xstr":9401,"xentry":9402,"ye":9403,"ym":9404,"yd":9405,"yp":9406,"yx":9407,"yad":9408,"yel":9409,"yto":9410,"ymd":9411,"yank":9412,"yma":9413,"yaa":9414,"yowby":9415,"yenabled":9416,"ze":9417,"zk":9418,"zig":9419,"zwidth":9420,"zlib":9421,"zenabled":9422,"##ev":9423,"##ez":9424,"##ees":9425,"##ever":9426,"##eigh":9427,"##eved":9428,"##effect":9429,"##eograph":9430,"##nu":9431,"##nk":9432,"##num":9433,"##norm":9434,"##nerm":9435,"##nical":9436,"##nval":9437,"##rd":9438,"##rp":9439,"##rint":9440,"##rink":9441,"##range":9442,"##rumb":9443,"##rnu":9444,"##men":9445,"##ming":9446,"##move":9447,"##main":9448,"##more":9449,"##millis":9450,"##most":9451,"##mainder":9452,"##multip":9453,"##ict":9454,"##iate":9455,"##ira":9456,"##iable":9457,"##ium":9458,"##ius":9459,"##ique":9460,"##ipping":9461,"##ae":9462,"##aw":9463,"##aired":9464,"##apper":9465,"##aunch":9466,"##ahead":9467,"##lag":9468,"##lable":9469,"##lang":9470,"##lash":9471,"##later":9472,"##lman":9473,"##liment":9474,"##lateral":9475,"##lars":9476,"##dn":9477,"##dl":9478,"##do":9479,"##dt":9480,"##dw":9481,"##dress":9482,"##desc":9483,"##dget":9484,"##drain":9485,"##decl":9486,"##def":9487,"##deg":9488,"##depth":9489,"##decoded":9490,"##por":9491,"##pot":9492,"##pand":9493,"##pend":9494,"##pare":9495,"##push":9496,"##part":9497,"##pfd":9498,"##paced":9499,"##package":9500,"##ou":9501,"##ock":9502,"##ouncing":9503,"##uing":9504,"##ument":9505,"##uced":9506,"##uited":9507,"##ufs":9508,"##ucker":9509,"##ufact":9510,"##tv":9511,"##tet":9512,"##test":9513,"##table":9514,"##ties":9515,"##tvs":9516,"##sa":9517,"##ss":9518,"##sun":9519,"##sable":9520,"##sers":9521,"##sity":9522,"##sign":9523,"##src":9524,"##sax":9525,"##soid":9526,"##sumed":9527,"##skip":9528,"##sampled":9529,"##spective":9530,"##cion":9531,"##cal":9532,"##clo":9533,"##cator":9534,"##cop":9535,"##cous":9536,"##codes":9537,"##cibly":9538,"##coded":9539,"##contact":9540,"##condition":9541,"##crumb":9542,"##ya":9543,"##yin":9544,"##ych":9545,"##yter":9546,"##yare":9547,"##yme":9548,"##ytypes":9549,"##ydw":9550,"##you":9551,"##fv":9552,"##fers":9553,"##fused":9554,"##fmt":9555,"##gi":9556,"##gs":9557,"##gar":9558,"##gan":9559,"##gable":9560,"##gener":9561,"##gative":9562,"##hm":9563,"##ht":9564,"##has":9565,"##hex":9566,"##hend":9567,"##holder":9568,"##hmer":9569,"##kt":9570,"##ks":9571,"##kle":9572,"##ked":9573,"##king":9574,"##ksize":9575,"##ktop":9576,"##bi":9577,"##bb":9578,"##band":9579,"##bage":9580,"##bow":9581,"##bread":9582,"##block":9583,"##bors":9584,"##wd":9585,"##wra":9586,"##wap":9587,"##weel":9588,"##warn":9589,"##vle":9590,"##viz":9591,"##vated":9592,"##vous":9593,"##void":9594,"##vention":9595,"##vfs":9596,"##vars":9597,"##qp":9598,"##xbuild":9599,"##xdigit":9600,"##xattr":9601,"##za":9602,"##zag":9603,"##zable":9604,"##zpo":9605,"##zium":9606,"##jos":9607,"##jug":9608,"##justed":9609,"##044":9610,"##55":9611,"##574":9612,"##1574":9613,"##3044":9614,"##aram":9615,"##aration":9616,"##arter":9617,"##arse":9618,"##array":9619,"##arency":9620,"##arters":9621,"##areness":9622,"##arameter":9623,"##erter":9624,"##erved":9625,"##erical":9626,"##ervers":9627,"##erholder":9628,"##onst":9629,"##oning":9630,"##oname":9631,"##onth":9632,"##onant":9633,"##onating":9634,"##onstru":9635,"##atit":9636,"##atas":9637,"##atum":9638,"##atty":9639,"##atables":9640,"##atype":9641,"##atisf":9642,"##ester":9643,"##ina":9644,"##inal":9645,"##inent":9646,"##inate":9647,"##inity":9648,"##inline":9649,"##eta":9650,"##etan":9651,"##etition":9652,"##etom":9653,"##ether":9654,"##etral":9655,"##etypes":9656,"##orer":9657,"##eno":9658,"##enos":9659,"##least":9660,"##leav":9661,"##lege":9662,"##leak":9663,"##leptic":9664,"##ali":9665,"##alate":9666,"##aless":9667,"##alized":9668,"##align":9669,"##alty":9670,"inch":9671,"inpl":9672,"injar":9673,"innerm":9674,"inband":9675,"inxbuild":9676,"##itve":9677,"##item":9678,"##itely":9679,"##itives":9680,"##italized":9681,"##ana":9682,"##anum":9683,"##anaged":9684,"##ctated":9685,"##ctuation":9686,"##ctln":9687,"##edo":9688,"##eds":9689,"##edition":9690,"##edari":9691,"conse":9692,"concept":9693,"conjunction":9694,"conjug":9695,"##star":9696,"##state":9697,"##stition":9698,"##stitute":9699,"##stitial":9700,"##stride":9701,"rex":9702,"rech":9703,"reput":9704,"reloc":9705,"reinter":9706,"reauth":9707,"rebalance":9708,"reindent":9709,"reheight":9710,"##rever":9711,"##reconnect":9712,"##repare":9713,"##amic":9714,"##amond":9715,"##amless":9716,"##amorphic":9717,"##ametom":9718,"##rocess":9719,"##enta":9720,"##utations":9721,"stability":9722,"stuck":9723,"sthm":9724,"btetral":9725,"##celer":9726,"##ases":9727,"##asan":9728,"##asure":9729,"##assemb":9730,"cover":9731,"cosh":9732,"coins":9733,"coptic":9734,"ism":9735,"isol":9736,"isinter":9737,"isreg":9738,"isbd":9739,"isdir":9740,"isdigit":9741,"isolated":9742,"isleaf":9743,"isfifo":9744,"isdt":9745,"isxdigit":9746,"isatty":9747,"##pears":9748,"##pezium":9749,"##adable":9750,"##aditional":9751,"##adjusted":9752,"##rait":9753,"##rack":9754,"##ragment":9755,"##rier":9756,"##riangles":9757,"##rieved":9758,"##rilateral":9759,"##ula":9760,"##ckname":9761,"##iller":9762,"deal":9763,"degr":9764,"deinitialize":9765,"dehex":9766,"deceler":9767,"##igin":9768,"##char":9769,"##chest":9770,"##chrome":9771,"##charat":9772,"##chnical":9773,"toom":9774,"took":9775,"topping":9776,"tolow":9777,"tower":9778,"toangle":9779,"excess":9780,"examp":9781,"prove":9782,"probing":9783,"proof":9784,"prospective":9785,"proleptic":9786,"##essed":9787,"##urer":9788,"##isk":9789,"##ises":9790,"##isan":9791,"##ispan":9792,"##issa":9793,"enq":9794,"enot":9795,"enlist":9796,"clr":9797,"clj":9798,"clst":9799,"cloning":9800,"##agers":9801,"##termin":9802,"##terday":9803,"##abling":9804,"##abetic":9805,"adb":9806,"adject":9807,"adiag":9808,"resent":9809,"resub":9810,"resign":9811,"resizable":9812,"reshape":9813,"##mpost":9814,"chk":9815,"chest":9816,"chore":9817,"chop":9818,"chomp":9819,"chines":9820,"chmod":9821,"christ":9822,"chae":9823,"china":9824,"ary":9825,"arity":9826,"army":9827,"##idata":9828,"##idext":9829,"##idated":9830,"##idian":9831,"##ots":9832,"##otify":9833,"##ests":9834,"##estone":9835,"##estype":9836,"##atach":9837,"los":9838,"lob":9839,"loll":9840,"loffset":9841,"##ola":9842,"##ols":9843,"##olving":9844,"adds":9845,"additive":9846,"adddress":9847,"##icon":9848,"##icable":9849,"##icify":9850,"##icular":9851,"##uned":9852,"##unique":9853,"##imable":9854,"##imator":9855,"##sect":9856,"##seeds":9857,"making":9858,"##ists":9859,"##istep":9860,"##istration":9861,"##extoname":9862,"fib":9863,"five":9864,"fifo":9865,"paren":9866,"parity":9867,"parsable":9868,"getting":9869,"getso":9870,"##izu":9871,"anagram":9872,"##ppy":9873,"##pple":9874,"##ppable":9875,"##ewarn":9876,"##vere":9877,"##verge":9878,"##verification":9879,"##versing":9880,"buy":9881,"bump":9882,"budget":9883,"##ands":9884,"##anding":9885,"##lop":9886,"##lout":9887,"##logram":9888,"sop":9889,"sos":9890,"soon":9891,"sole":9892,"soap":9893,"##ifed":9894,"##ifest":9895,"pov":9896,"pout":9897,"popped":9898,"pojo":9899,"poison":9900,"forcibly":9901,"formpost":9902,"metach":9903,"metaph":9904,"metatype":9905,"##elp":9906,"##eles":9907,"ones":9908,"onack":9909,"ondecoded":9910,"onclo":9911,"onreconnect":9912,"keyfr":9913,"keyless":9914,"keymod":9915,"##asso":9916,"##assoc":9917,"##actored":9918,"shy":9919,"shx":9920,"shot":9921,"shark":9922,"shade":9923,"shaker":9924,"shoot":9925,"sharder":9926,"sheets":9927,"shorth":9928,"shaking":9929,"shipping":9930,"##umenos":9931,"doit":9932,"doing":9933,"dous":9934,"doug":9935,"bodylist":9936,"##ffert":9937,"##quals":9938,"news":9939,"newfd":9940,"newpair":9941,"newstr":9942,"colindex":9943,"##acked":9944,"##ackbar":9945,"patt":9946,"patts":9947,"classed":9948,"classloader":9949,"classobfuscationdictionary":9950,"##ildiv":9951,"##ertype":9952,"sui":9953,"sure":9954,"sudo":9955,"sugar":9956,"ideograph":9957,"uname":9958,"untr":9959,"unsc":9960,"unop":9961,"unser":9962,"unimp":9963,"unpr":9964,"unval":9965,"unful":9966,"unrec":9967,"unannot":9968,"unha":9969,"unconfig":9970,"unconnect":9971,"unconfigurable":9972,"unindent":9973,"untyp":9974,"unvoid":9975,"unadjusted":9976,"untermin":9977,"unacked":9978,"indian":9979,"indicate":9980,"indeterm":9981,"indextoname":9982,"##inds":9983,"##indx":9984,"##indices":9985,"alist":9986,"alac":9987,"alnum":9988,"compens":9989,"compliment":9990,"indexable":9991,"indexstride":9992,"##emes":9993,"##emeral":9994,"##thing":9995,"##thtime":9996,"confus":9997,"conform":9998,"confuse":9999,"ati":10000,"atob":10001,"atleast":10002,"trg":10003,"tresh":10004,"traditional":10005,"requiring":10006,"requester":10007,"seper":10008,"seven":10009,"segs":10010,"sezpo":10011,"seamless":10012,"severe":10013,"handoff":10014,"listable":10015,"listner":10016,"listview":10017,"infix":10018,"inflection":10019,"inflict":10020,"stress":10021,"stretch":10022,"strlen":10023,"strindex":10024,"stratum":10025,"filepath":10026,"obtr":10027,"obsc":10028,"fromangle":10029,"asin":10030,"linestart":10031,"lineth":10032,"lineno":10033,"pathname":10034,"pathconf":10035,"outlin":10036,"outjars":10037,"interact":10038,"interactive":10039,"interception":10040,"interstitial":10041,"constrained":10042,"constrains":10043,"thin":10044,"thing":10045,"thaw":10046,"thyme":10047,"theta":10048,"arraytype":10049,"##ialize":10050,"##ialias":10051,"timers":10052,"timings":10053,"##ritics":10054,"hasattr":10055,"##usage":10056,"##usoid":10057,"readline":10058,"readability":10059,"readdir":10060,"atts":10061,"attack":10062,"transmit":10063,"transitional":10064,"transpos":10065,"transacted":10066,"transfers":10067,"checkers":10068,"checkfp":10069,"checkdigits":10070,"##upied":10071,"##uploaded":10072,"starters":10073,"##fair":10074,"beat":10075,"become":10076,"began":10077,"##ipop":10078,"##ipath":10079,"hear":10080,"heic":10081,"heard":10082,"heater":10083,"spc":10084,"spare":10085,"spsc":10086,"spline":10087,"spaced":10088,"sprites":10089,"sprint":10090,"splash":10091,"remapping":10092,"remappable":10093,"offloaded":10094,"updatable":10095,"updmrg":10096,"proper":10097,"propose":10098,"propety":10099,"initif":10100,"initargs":10101,"initially":10102,"stringi":10103,"stringish":10104,"stringlit":10105,"##atorial":10106,"softly":10107,"prepo":10108,"preinitial":10109,"prebuild":10110,"preloaded":10111,"preformat":10112,"prevalidate":10113,"pregener":10114,"preverification":10115,"preuploaded":10116,"disjunction":10117,"disassemb":10118,"disabling":10119,"disassoc":10120,"targeting":10121,"targetify":10122,"targetted":10123,"sourceless":10124,"callers":10125,"callables":10126,"regard":10127,"regression":10128,"##ubsc":10129,"filetypes":10130,"##ormat":10131,"##ormal":10132,"##ecy":10133,"##eces":10134,"##ecute":10135,"##ecedari":10136,"starti":10137,"collate":10138,"prj":10139,"updateable":10140,"scn":10141,"scans":10142,"scav":10143,"scout":10144,"scanned":10145,"scores":10146,"scene":10147,"scontacts":10148,"scientific":10149,"generates":10150,"tested":10151,"testable":10152,"testee":10153,"errs":10154,"nodelist":10155,"nodeindex":10156,"multito":10157,"multadd":10158,"multistep":10159,"decset":10160,"decry":10161,"deconstru":10162,"recall":10163,"recapt":10164,"recency":10165,"recie":10166,"recents":10167,"recognized":10168,"objective":10169,"objectives":10170,"objectuiv":10171,"elevated":10172,"parsemore":10173,"plac":10174,"codepoint":10175,"codebase":10176,"deshape":10177,"desktop":10178,"quo":10179,"quotation":10180,"quarters":10181,"writeable":10182,"opop":10183,"oprop":10184,"opcodes":10185,"usages":10186,"positives":10187,"##ained":10188,"errorf":10189,"errorlevel":10190,"##ressive":10191,"manufact":10192,"numeral":10193,"numvert":10194,"numindices":10195,"trial":10196,"tripping":10197,"trials":10198,"tricontact":10199,"impos":10200,"implic":10201,"imprec":10202,"impulses":10203,"##lerr":10204,"##ibc":10205,"##ibilities":10206,"##ibases":10207,"finding":10208,"findcall":10209,"actionable":10210,"##antize":10211,"##antly":10212,"##antom":10213,"attribiv":10214,"attribution":10215,"attributed":10216,"frq":10217,"fruit":10218,"expn":10219,"expert":10220,"resovle":10221,"shapeindex":10222,"subcl":10223,"subord":10224,"submission":10225,"sublist":10226,"subpath":10227,"suballoc":10228,"subresource":10229,"subrange":10230,"subarray":10231,"descr":10232,"##vie":10233,"##vik":10234,"ofs":10235,"oflag":10236,"stateful":10237,"stateless":10238,"stategy":10239,"annually":10240,"ending":10241,"endnode":10242,"endpart":10243,"##omial":10244,"grouped":10245,"worse":10246,"worth":10247,"streamed":10248,"heads":10249,"refuse":10250,"refraction":10251,"refines":10252,"reformat":10253,"resolves":10254,"facto":10255,"factors":10256,"invited":10257,"inviter":10258,"involving":10259,"encrp":10260,"lev":10261,"lehmer":10262,"removeleav":10263,"##irected":10264,"orcs":10265,"orpush":10266,"orchest":10267,"defaultmapping":10268,"lenov":10269,"intf":10270,"intra":10271,"intact":10272,"intcheck":10273,"intitial":10274,"extlang":10275,"bof":10276,"bout":10277,"boos":10278,"bogg":10279,"bufferiv":10280,"bufferuiv":10281,"bufferfi":10282,"bufferfv":10283,"acm":10284,"acl":10285,"acos":10286,"acceptor":10287,"insts":10288,"instid":10289,"repr":10290,"reposition":10291,"reparent":10292,"replicate":10293,"repetition":10294,"validating":10295,"ruleid":10296,"viscous":10297,"visibilities":10298,"directive":10299,"fli":10300,"flv":10301,"flav":10302,"flak":10303,"fluid":10304,"fluff":10305,"flaky":10306,"flipped":10307,"symt":10308,"syll":10309,"formulate":10310,"formget":10311,"formula":10312,"##formation":10313,"maxcode":10314,"maxiterations":10315,"maxcall":10316,"maximize":10317,"maxcount":10318,"maxdigits":10319,"maxdepth":10320,"##ighbors":10321,"providing":10322,"matchable":10323,"matchlen":10324,"statter":10325,"statics":10326,"statfs":10327,"statvfs":10328,"memorize":10329,"memmove":10330,"memcop":10331,"memleak":10332,"curve":10333,"curly":10334,"localization":10335,"localhost":10336,"routable":10337,"ifd":10338,"ifnode":10339,"depr":10340,"depender":10341,"depfile":10342,"deprefix":10343,"##osis":10344,"##osity":10345,"solved":10346,"limitp":10347,"fload":10348,"flock":10349,"floord":10350,"floors":10351,"floydw":10352,"allzero":10353,"##orelease":10354,"lineage":10355,"linefe":10356,"lengthen":10357,"inserter":10358,"texts":10359,"textstart":10360,"textlimit":10361,"textarea":10362,"##ivate":10363,"commence":10364,"packge":10365,"packagers":10366,"cleans":10367,"imb":10368,"initialisation":10369,"##azon":10370,"formatting":10371,"logd":10372,"logp":10373,"logic":10374,"drawables":10375,"##clen":10376,"##clid":10377,"operable":10378,"operating":10379,"retwe":10380,"retrace":10381,"runcondition":10382,"##licable":10383,"dispatach":10384,"triangular":10385,"##ardown":10386,"perror":10387,"perlin":10388,"perpend":10389,"blockable":10390,"envs":10391,"floatv":10392,"positionals":10393,"nehe":10394,"neighbors":10395,"##ignature":10396,"bindable":10397,"bindir":10398,"mappable":10399,"typists":10400,"itemize":10401,"clazzname":10402,"trap":10403,"traks":10404,"trapezium":10405,"traversing":10406,"prio":10407,"prior":10408,"##ideeffect":10409,"##amesource":10410,"##acs":10411,"##acers":10412,"##acritics":10413,"parameterable":10414,"parameterize":10415,"overall":10416,"oversh":10417,"overidden":10418,"overestimated":10419,"##layed":10420,"transformable":10421,"useless":10422,"usemargin":10423,"useunique":10424,"registerer":10425,"convt":10426,"wearable":10427,"variation":10428,"variance":10429,"dirents":10430,"bitstream":10431,"bitwise":10432,"##epre":10433,"roott":10434,"clearable":10435,"cleartext":10436,"mods":10437,"modtime":10438,"tasker":10439,"referne":10440,"usernames":10441,"convertible":10442,"##begin":10443,"##behind":10444,"##ynchron":10445,"copies":10446,"customizable":10447,"customizations":10448,"defens":10449,"deflater":10450,"defragment":10451,"bvlen":10452,"labs":10453,"skj":10454,"skhr":10455,"copysize":10456,"labelpa":10457,"whence":10458,"wheres":10459,"whyare":10460,"whether":10461,"namespaced":10462,"nameservers":10463,"mini":10464,"minimized":10465,"##ouldblock":10466,"tokenlength":10467,"byteadd":10468,"nulling":10469,"nullary":10470,"applyed":10471,"applymapping":10472,"##oplay":10473,"##opendir":10474,"flagfiles":10475,"flagged":10476,"appending":10477,"appendln":10478,"autorelease":10479,"autoplay":10480,"dofs":10481,"numbered":10482,"numberlit":10483,"taggable":10484,"angrad":10485,"angdeg":10486,"angeles":10487,"matb":10488,"##buffert":10489,"packageobfuscationdictionary":10490,"noinline":10491,"##olded":10492,"parties":10493,"selecting":10494,"consumption":10495,"consonant":10496,"mss":10497,"msb":10498,"msync":10499,"##token":10500,"##tools":10501,"changelog":10502,"entitle":10503,"entrop":10504,"##inks":10505,"childs":10506,"childless":10507,"childindx":10508,"empties":10509,"emphas":10510,"assist":10511,"assrt":10512,"assumenos":10513,"motorola":10514,"printed":10515,"printconfig":10516,"printmapping":10517,"printseeds":10518,"printusage":10519,"calb":10520,"calories":10521,"hasher":10522,"hashable":10523,"hashmap":10524,"hashtable":10525,"allowing":10526,"allowable":10527,"allowaccess":10528,"emptystr":10529,"##okia":10530,"edata":10531,"older":10532,"temptop":10533,"paircache":10534,"specify":10535,"speculating":10536,"toolable":10537,"queryiv":10538,"constructing":10539,"played":10540,"players":10541,"##implex":10542,"longer":10543,"longitude":10544,"saw":10545,"ctg":10546,"ctos":10547,"ctors":10548,"finer":10549,"verifiable":10550,"depended":10551,"dependend":10552,"dependence":10553,"dependee":10554,"dependants":10555,"dependecy":10556,"poster":10557,"postal":10558,"htc":10559,"mood":10560,"moments":10561,"movable":10562,"moves":10563,"mojos":10564,"movie":10565,"synch":10566,"synched":10567,"synony":10568,"libname":10569,"displayable":10570,"displayname":10571,"nonapp":10572,"nonne":10573,"nonhost":10574,"nonzero":10575,"nonfair":10576,"hover":10577,"mths":10578,"needing":10579,"needles":10580,"iterables":10581,"poolable":10582,"normalization":10583,"normalizer":10584,"normalisation":10585,"meshes":10586,"equations":10587,"equatorial":10588,"ava":10589,"avt":10590,"avg":10591,"avlen":10592,"polled":10593,"pollout":10594,"pollerr":10595,"encoders":10596,"encodings":10597,"levelorder":10598,"resetter":10599,"fails":10600,"downward":10601,"downscale":10602,"downsampled":10603,"afterward":10604,"dbd":10605,"renderbuffert":10606,"heightcall":10607,"functioning":10608,"functionizing":10609,"incogn":10610,"##ategory":10611,"abd":10612,"able":10613,"absor":10614,"abgr":10615,"abnorm":10616,"abecedari":10617,"shows":10618,"instanceof":10619,"replacing":10620,"replacers":10621,"otherwise":10622,"##tprever":10623,"widths":10624,"closeables":10625,"throwables":10626,"returnable":10627,"glibc":10628,"slack":10629,"slaves":10630,"identified":10631,"identifiable":10632,"works":10633,"workflow":10634,"worksheet":10635,"inserted":10636,"insertions":10637,"releasing":10638,"dexman":10639,"definer":10640,"defining":10641,"definitely":10642,"signer":10643,"signin":10644,"signum":10645,"jointcount":10646,"webapp":10647,"webrt":10648,"webfl":10649,"addrs":10650,"simplepattern":10651,"backfused":10652,"skipcount":10653,"skipnonpubliclibraryclass":10654,"stacks":10655,"includer":10656,"capitalize":10657,"capitalized":10658,"feel":10659,"mercator":10660,"merkle":10661,"meridian":10662,"forceprocess":10663,"ownable":10664,"activatables":10665,"linearize":10666,"linearly":10667,"trying":10668,"plug":10669,"raf":10670,"raised":10671,"quantity":10672,"quantified":10673,"collecting":10674,"utime":10675,"utimes":10676,"queueing":10677,"rangef":10678,"closes":10679,"fixdesc":10680,"dispatches":10681,"restarter":10682,"unswap":10683,"unsatisf":10684,"unsynchron":10685,"reporting":10686,"cci":10687,"ccia":10688,"settle":10689,"settable":10690,"relations":10691,"relink":10692,"relaunch":10693,"dynamo":10694,"mont":10695,"preparing":10696,"preposition":10697,"preparation":10698,"preprocess":10699,"realize":10700,"canceling":10701,"cancelable":10702,"cancellable":10703,"topolog":10704,"bufsize":10705,"aspectj":10706,"overriden":10707,"ceildiv":10708,"##mss":10709,"##msig":10710,"quantizedpoint":10711,"presize":10712,"##nerability":10713,"looks":10714,"looked":10715,"lookfor":10716,"lookbehind":10717,"castle":10718,"fdatas":10719,"fdopendir":10720,"##onds":10721,"strike":10722,"locker":10723,"lockdown":10724,"phk":10725,"phantom":10726,"candytypes":10727,"animating":10728,"animatable":10729,"animals":10730,"connectable":10731,"libraryjars":10732,"sorts":10733,"sortable":10734,"sortax":10735,"expectation":10736,"searches":10737,"determination":10738,"successive":10739,"patches":10740,"patching":10741,"durationmillis":10742,"finisher":10743,"fullsort":10744,"fulltest":10745,"socketpair":10746,"docdecl":10747,"grape":10748,"##clear":10749,"##onents":10750,"dell":10751,"mergee":10752,"mergeinter":10753,"emulator":10754,"embig":10755,"emacs":10756,"population":10757,"populated":10758,"populator":10759,"popitem":10760,"splitter":10761,"availablecheck":10762,"##omponents":10763,"multiples":10764,"multiplied":10765,"progressed":10766,"misses":10767,"miscell":10768,"##arted":10769,"##artition":10770,"completes":10771,"completeness":10772,"clicks":10773,"clickable":10774,"passing":10775,"passcode":10776,"passwd":10777,"ssize":10778,"ssfd":10779,"sshr":10780,"downloadable":10781,"overlapp":10782,"##gged":10783,"##iasnet":10784,"portrait":10785,"radmrg":10786,"redeliver":10787,"decodabet":10788,"apc":10789,"apic":10790,"apos":10791,"apop":10792,"apache":10793,"apns":10794,"appears":10795,"disturb":10796,"cleaned":10797,"bash":10798,"basict":10799,"autoinc":10800,"autocom":10801,"autoconfig":10802,"schemes":10803,"schemaless":10804,"binop":10805,"binormal":10806,"binomial":10807,"engineering":10808,"globstar":10809,"##shape":10810,"##sheets":10811,"##shrink":10812,"metafact":10813,"assertions":10814,"centered":10815,"netrc":10816,"netmask":10817,"zipaligned":10818,"zipalign":10819,"archiving":10820,"looped":10821,"looping":10822,"dii":10823,"diamond":10824,"diverge":10825,"diacritics":10826,"keeping":10827,"keepnames":10828,"keepattribute":10829,"areas":10830,"hellman":10831,"assignments":10832,"clss":10833,"edited":10834,"peak":10835,"peucker":10836,"rightspace":10837,"xmlsax":10838,"concrete":10839,"##utions":10840,"anything":10841,"refresher":10842,"refreshes":10843,"refreshing":10844,"refreshable":10845,"##rypted":10846,"movements":10847,"escalate":10848,"highs":10849,"exiting":10850,"qualify":10851,"compoundshape":10852,"incrementally":10853,"blurs":10854,"blksize":10855,"blessed":10856,"timestep":10857,"joinpoint":10858,"meizu":10859,"subtext":10860,"subtables":10861,"importance":10862,"sequenceable":10863,"shutter":10864,"sdrift":10865,"##pret":10866,"##eroid":10867,"storable":10868,"diffing":10869,"differs":10870,"diffie":10871,"perspective":10872,"##ocument":10873,"scancode":10874,"optimizing":10875,"optimizable":10876,"optimisation":10877,"monthly":10878,"emitters":10879,"bootloader":10880,"roundup":10881,"yearly":10882,"superfl":10883,"enumerator":10884,"leftmost":10885,"pkipath":10886,"adapted":10887,"adapting":10888,"adaptable":10889,"adaptee":10890,"synchronizers":10891,"graphs":10892,"graphless":10893,"grapheme":10894,"graphviz":10895,"graphemes":10896,"rsv":10897,"digestes":10898,"digested":10899,"unmark":10900,"unmarshall":10901,"unmeter":10902,"unmapper":10903,"unmanaged":10904,"commons":10905,"finalization":10906,"finalizable":10907,"selfcall":10908,"batches":10909,"zeroes":10910,"zeroout":10911,"zeroeth":10912,"islnk":10913,"islamic":10914,"advmss":10915,"requirement":10916,"els":10917,"elif":10918,"elves":10919,"firefo":10920,"awareness":10921,"categorize":10922,"hexify":10923,"retriable":10924,"dumped":10925,"sigs":10926,"sigint":10927,"stubber":10928,"ascend":10929,"combinator":10930,"passwords":10931,"analyse":10932,"pageable":10933,"##listed":10934,"##rounding":10935,"spheres":10936,"spherical":10937,"spanish":10938,"polyline":10939,"payloads":10940,"evaluations":10941,"freebase":10942,"freevars":10943,"freezable":10944,"annotator":10945,"ipop":10946,"rotator":10947,"genre":10948,"gensrc":10949,"programs":10950,"utilize":10951,"peeking":10952,"pinning":10953,"pinyin":10954,"triggering":10955,"privuse":10956,"privacy":10957,"normalizepath":10958,"simd":10959,"simulator":10960,"interrupts":10961,"interruptable":10962,"amend":10963,"amete":10964,"amqp":10965,"amicable":10966,"amazon":10967,"shaded":10968,"shadertype":10969,"faster":10970,"fastest":10971,"fastcall":10972,"fastopen":10973,"goals":10974,"runtype":10975,"smear":10976,"smali":10977,"rbbi":10978,"##lemented":10979,"totitle":10980,"fillbuf":10981,"multibodies":10982,"multibinding":10983,"multibinds":10984,"##classmembernames":10985,"skykey":10986,"epipe":10987,"rendererer":10988,"receiever":10989,"signals":10990,"signalfx":10991,"duplication":10992,"barrier":10993,"delegates":10994,"segmented":10995,"performed":10996,"performing":10997,"bullets":10998,"surrounding":10999,"exclusives":11000,"exclusivity":11001,"compressing":11002,"transfered":11003,"##facesaggressively":11004,"spawns":11005,"csdom":11006,"facebook":11007,"reactivate":11008,"clogged":11009,"seeker":11010,"canonize":11011,"branching":11012,"launched":11013,"launching":11014,"weekend":11015,"weekly":11016,"dimmer":11017,"dimming":11018,"dialing":11019,"touching":11020,"unregistration":11021,"percentiles":11022,"breakpoint":11023,"breakdown":11024,"crs":11025,"txos":11026,"txxx":11027,"rectangles":11028,"forwarding":11029,"submitter":11030,"abstrakt":11031,"cpb":11032,"hirag":11033,"lifo":11034,"lifter":11035,"rewound":11036,"rewrites":11037,"randomly":11038,"randomization":11039,"latm":11040,"latitude":11041,"latencies":11042,"avatars":11043,"dotnet":11044,"unpars":11045,"unpaired":11046,"unprepare":11047,"unplayed":11048,"computers":11049,"closedir":11050,"canonicalized":11051,"packetv":11052,"domains":11053,"embedding":11054,"drip":11055,"driven":11056,"hardcoded":11057,"pieces":11058,"volley":11059,"discovers":11060,"discoveries":11061,"aggressive":11062,"##reset":11063,"parallelogram":11064,"numerics":11065,"notequals":11066,"reducing":11067,"bridges":11068,"toggling":11069,"ancor":11070,"untar":11071,"untrack":11072,"capturer":11073,"acquires":11074,"pollin":11075,"pollconn":11076,"pollhup":11077,"pollnval":11078,"parallelize":11079,"mutual":11080,"torch":11081,"tablet":11082,"tabulate":11083,"##ostic":11084,"##ostime":11085,"alphas":11086,"alphanum":11087,"alphabetic":11088,"screenshot":11089,"strictly":11090,"continued":11091,"foreach":11092,"uncapitalize":11093,"sparsity":11094,"pairsof":11095,"layering":11096,"surfaceless":11097,"ancestral":11098,"drink":11099,"directions":11100,"directional":11101,"mtv":11102,"particular":11103,"incomparable":11104,"ignorewarn":11105,"osx":11106,"repeating":11107,"contributions":11108,"underline":11109,"underne":11110,"understand":11111,"underestimated":11112,"atoms":11113,"atomically":11114,"atomik":11115,"securely":11116,"snode":11117,"snackbar":11118,"vorigin":11119,"unbride":11120,"unbiasnet":11121,"remains":11122,"colliding":11123,"reconstitute":11124,"substr":11125,"accumulation":11126,"accumulating":11127,"answered":11128,"answering":11129,"focusable":11130,"dtmx":11131,"dtfmt":11132,"generators":11133,"deserializing":11134,"detects":11135,"multiparts":11136,"quaternary":11137,"penalty":11138,"obtained":11139,"clocks":11140,"denial":11141,"deniable":11142,"grand":11143,"##ralia":11144,"colorspace":11145,"feedbacks":11146,"nsent":11147,"psa":11148,"psych":11149,"psubsc":11150,"ticker":11151,"business":11152,"propagated":11153,"backgrounded":11154,"restartable":11155,"guests":11156,"guicify":11157,"viral":11158,"deadlock":11159,"deadzone":11160,"decompression":11161,"decomposed":11162,"decompiler":11163,"resolutions":11164,"lazyval":11165,"cmds":11166,"fnt":11167,"picasso":11168,"walker":11169,"enqueueing":11170,"repeats":11171,"repeatables":11172,"sleepy":11173,"##links":11174,"captionless":11175,"approvable":11176,"descriptive":11177,"skippable":11178,"redirected":11179,"borderless":11180,"menus":11181,"tunne":11182,"issues":11183,"issock":11184,"enclose":11185,"invokables":11186,"penetr":11187,"badarg":11188,"badge":11189,"casing":11190,"crossing":11191,"crosses":11192,"ioe":11193,"ioctl":11194,"ioffset":11195,"sidepan":11196,"prevsib":11197,"megamorphic":11198,"participate":11199,"participation":11200,"ackto":11201,"largest":11202,"mandated":11203,"navitve":11204,"##erarchy":11205,"undone":11206,"undelet":11207,"undeliver":11208,"undecoded":11209,"undirected":11210,"undocument":11211,"verbosity":11212,"subtrahend":11213,"foregrounded":11214,"middlemen":11215,"lpft":11216,"watchable":11217,"watchees":11218,"macros":11219,"macdef":11220,"unwatch":11221,"unwield":11222,"indents":11223,"indenter":11224,"indenting":11225,"offered":11226,"offering":11227,"decremented":11228,"changeset":11229,"detaching":11230,"emojify":11231,"alwayslink":11232,"magenta":11233,"tileid":11234,"tilewidth":11235,"tileheight":11236,"##nels":11237,"##progress":11238,"antialias":11239,"quoting":11240,"quieting":11241,"combineable":11242,"epollet":11243,"epollin":11244,"intersects":11245,"intersecting":11246,"agentmain":11247,"fitting":11248,"ilength":11249,"queuing":11250,"tlength":11251,"wsi":11252,"wsdl":11253,"##escall":11254,"isaa":11255,"composer":11256,"blurred":11257,"circuited":11258,"braces":11259,"jumps":11260,"jumpahead":11261,"mongod":11262,"pco":11263,"pcs":11264,"sinf":11265,"sinh":11266,"sinusoid":11267,"reloaded":11268,"reloading":11269,"quicksort":11270,"implicitly":11271,"highlights":11272,"highlighted":11273,"thumbnails":11274,"epollrd":11275,"bbending":11276,"cdbvt":11277,"cdsect":11278,"cards":11279,"cardinal":11280,"dna":11281,"dropdown":11282,"fsync":11283,"fsstat":11284,"ivc":11285,"uids":11286,"stock":11287,"companions":11288,"inflated":11289,"differing":11290,"differential":11291,"differences":11292,"flattened":11293,"flattenpackage":11294,"crashed":11295,"crashing":11296,"mnemonics":11297,"dedicated":11298,"deduced":11299,"unexpand":11300,"unexecute":11301,"structured":11302,"precondition":11303,"incrementality":11304,"unpacker":11305,"unpacked":11306,"earlier":11307,"estimator":11308,"hypot":11309,"renotify":11310,"renamesource":11311,"##uncate":11312,"bubbles":11313,"bubbling":11314,"indicestype":11315,"frontier":11316,"traversals":11317,"autowira":11318,"safari":11319,"dontskip":11320,"dontwarn":11321,"dontclear":11322,"dontshrink":11323,"killing":11324,"ptn":11325,"rdns":11326,"rdev":11327,"teredo":11328,"tenured":11329,"##cutive":11330,"rejector":11331,"deeply":11332,"enforcer":11333,"enforcing":11334,"sharding":11335,"unicast":11336,"unreserved":11337,"locators":11338,"recovered":11339,"recovering":11340,"slashify":11341,"evicts":11342,"sandboxing":11343,"aars":11344,"cumulate":11345,"fcbb":11346,"justify":11347,"mltvs":11348,"xflow":11349,"partitioning":11350,"measured":11351,"revisions":11352,"checksums":11353,"unsuppress":11354,"heartbeats":11355,"codesource":11356,"dsl":11357,"gai":11358,"okay":11359,"##ycomb":11360,"supersc":11361,"transpilation":11362,"transparency":11363,"quadrilateral":11364,"simplification":11365,"backends":11366,"conditionals":11367,"diagnosis":11368,"potentials":11369,"skeletons":11370,"dpad":11371,"mpi":11372,"mpd":11373,"ndk":11374,"rtm":11375,"rts":11376,"rttv":11377,"##fileattribute":11378,"reachability":11379,"##seconds":11380,"unstarted":11381,"denying":11382,"denylisted":11383,"panels":11384,"anonymously":11385,"hdr":11386,"hdel":11387,"pdi":11388,"pdt":11389,"pds":11390,"pdb":11391,"pdus":11392,"sounds":11393,"obfuscate":11394,"obfuscator":11395,"obfuscating":11396,"allowlister":11397,"availqueue":11398,"distribs":11399,"busybox":11400,"dismissal":11401,"dismissable":11402,"accelerate":11403,"provisioner":11404,"provisioning":11405,"mipmap":11406,"##ooting":11407,"reordered":11408,"unlocker":11409,"subclassing":11410,"throughput":11411,"bsm":11412,"browse":11413,"browsers":11414,"cbs":11415,"cbb":11416,"cbor":11417,"cbrt":11418,"octave":11419,"pulling":11420,"pythag":11421,"rfn":11422,"rfind":11423,"dematerial":11424,"demonst":11425,"promoted":11426,"causal":11427,"leaks":11428,"leaky":11429,"leaked":11430,"routing":11431,"routers":11432,"privilege":11433,"tooltips":11434,"multiplicity":11435,"multiplicator":11436,"pixmaps":11437,"latinate":11438,"enhancing":11439,"measurements":11440,"dereg":11441,"dereference":11442,"gcm":11443,"gcd":11444,"gcs":11445,"hanged":11446,"occupied":11447,"rcv":11448,"velmrg":11449,"xcodes":11450,"xcrun":11451,"##plug":11452,"unfork":11453,"unfactored":11454,"unfolded":11455,"alterneigh":11456,"multicaster":11457,"subpart":11458,"subparse":11459,"ordar":11460,"pointcuts":11461,"overwritten":11462,"destructor":11463,"translators":11464,"corrected":11465,"correctness":11466,"negotiating":11467,"uncompress":11468,"dtmid":11469,"gradinent":11470,"faq":11471,"geq":11472,"geob":11473,"jaxp":11474,"ldif":11475,"ldivid":11476,"omitfp":11477,"tsch":11478,"##ivide":11479,"clamped":11480,"chronolog":11481,"shaping":11482,"unboxed":11483,"evenly":11484,"pronouncing":11485,"prunable":11486,"recently":11487,"sysctln":11488,"suppresses":11489,"monochrome":11490,"preserves":11491,"scrubbing":11492,"surrogates":11493,"123":11494,"1255":11495,"fqdn":11496,"hotel":11497,"hotplug":11498,"ico":11499,"icy":11500,"icount":11501,"lexer":11502,"marshalled":11503,"vmax":11504,"vmopts":11505,"stamper":11506,"stamped":11507,"devops":11508,"devtools":11509,"exempted":11510,"transcache":11511,"quartiles":11512,"registrations":11513,"perfect":11514,"mounted":11515,"architectures":11516,"summands":11517,"deduper":11518,"deduped":11519,"deduping":11520,"xsln":11521,"dequeues":11522,"advertises":11523,"strongly":11524,"premain":11525,"recurse":11526,"explore":11527,"exploded":11528,"explorer":11529,"exponential":11530,"insensitively":11531,"conventional":11532,"products":11533,"bootclassloader":11534,"approvals":11535,"liquibases":11536,"precisiontype":11537,"precompute":11538,"precomputed":11539,"inherits":11540,"neverlinking":11541,"ageing":11542,"cutover":11543,"cutoff":11544,"dfp":11545,"dfactor":11546,"##passes":11547,"inlines":11548,"##strophes":11549,"##strophic":11550,"stlport":11551,"stroked":11552,"deallocate":11553,"probs":11554,"probability":11555,"socks":11556,"unsetenv":11557,"international":11558,"solaris":11559,"discriminated":11560,"succeeds":11561,"radixsort":11562,"enumerable":11563,"enumerated":11564,"goodby":11565,"dtde":11566,"approximable":11567,"mentioning":11568,"problematic":11569,"asteroid":11570,"bidirectional":11571,"cronet":11572,"fmod":11573,"fmix":11574,"favicon":11575,"grego":11576,"lights":11577,"lightning":11578,"lightness":11579,"mkfifo":11580,"ocni":11581,"pbn":11582,"picked":11583,"treasure":11584,"treepre":11585,"widest":11586,"transients":11587,"booked":11588,"booking":11589,"bookkeeping":11590,"permute":11591,"permutations":11592,"momentum":11593,"incorpor":11594,"savepoints":11595,"repeatedly":11596,"reconciled":11597,"reconnecting":11598,"tlsv":11599,"tetrahedra":11600,"gaussian":11601,"obfuscationdictionary":11602,"predictive":11603,"ordinals":11604,"association":11605,"alem":11606,"jnu":11607,"judge":11608,"nbp":11609,"nbsp":11610,"nodetype":11611,"pascal":11612,"rpy":11613,"rpartition":11614,"rstrip":11615,"srvc":11616,"srclen":11617,"sfx":11618,"sfactor":11619,"tiu":11620,"tcdrain":11621,"tilesets":11622,"winning":11623,"yesno":11624,"yesterday":11625,"##hierarchy":11626,"stepped":11627,"steering":11628,"##igits":11629,"exeception":11630,"prompted":11631,"mailing":11632,"unquantize":11633,"infinispan":11634,"precede":11635,"preceded":11636,"preceding":11637,"refcnt":11638,"reflective":11639,"flinging":11640,"exceeds":11641,"retroactive":11642,"libcpp":11643,"libcxx":11644,"sliding":11645,"optimizationpasses":11646,"coroutines":11647,"##centricity":11648,"derivation":11649,"authenticators":11650,"sniffer":11651,"sniffing":11652,"reconstructed":11653,"diagonally":11654,"concatenated":11655,"circumrad":11656,"circumference":11657,"circumvention":11658,"histograms":11659,"established":11660,"enhancement":11661,"satisfies":11662,"invariantly":11663,"unprocessable":11664,"introducing":11665,"catastrophic":11666,"facility":11667,"holds":11668,"midrow":11669,"naive":11670,"pwd":11671,"pumping":11672,"qsort":11673,"qsufs":11674,"qids":11675,"tbb":11676,"xds":11677,"xdostime":11678,"yylex":11679,"yystate":11680,"yycharat":11681,"yybegin":11682,"yyreset":11683,"##fromtet":11684,"inactivate":11685,"stealer":11686,"stealing":11687,"coercion":11688,"parking":11689,"forbidden":11690,"assembly":11691,"transliterator":11692,"spreadsheet":11693,"spreadsheets":11694,"initiated":11695,"generalized":11696,"quiescent":11697,"orphans":11698,"parenthesis":11699,"keepclassmembernames":11700,"keepclassmembers":11701,"asciidoc":11702,"crls":11703,"fulfiller":11704,"saturate":11705,"everyone":11706,"summarize":11707,"summarized":11708,"interpreted":11709,"revealable":11710,"stereotype":11711,"bimorphic":11712,"euil":11713,"euclid":11714,"eclip":11715,"folding":11716,"hextet":11717,"knap":11718,"killer":11719,"killed":11720,"miller":11721,"milestone":11722,"ntriangles":11723,"sensivity":11724,"technical":11725,"teardown":11726,"tua":11727,"tuo":11728,"vao":11729,"witz":11730,"##modification":11731,"rebatch":11732,"rebinding":11733,"reentry":11734,"keepparameter":11735,"unencrypted":11736,"unauthorized":11737,"comparables":11738,"truns":11739,"trunctated":11740,"interested":11741,"preallocated":11742,"eraser":11743,"decryptions":11744,"impersonating":11745,"subsumed":11746,"subsampled":11747,"subsignature":11748,"subsimplex":11749,"descends":11750,"flirt":11751,"dragging":11752,"draggable":11753,"primaries":11754,"frags":11755,"abruptly":11756,"identifying":11757,"releaser":11758,"mergers":11759,"synchronously":11760,"##ographer":11761,"smartisan":11762,"unpinned":11763,"renewed":11764,"synthesize":11765,"synthesized":11766,"synthesizers":11767,"synthesizable":11768,"tdotx":11769,"tdotz":11770,"coalesced":11771,"transliteration":11772,"fulfilling":11773,"fulfillment":11774,"aaaa":11775,"ajc":11776,"apostrophes":11777,"breadcrumb":11778,"dollar":11779,"dampen":11780,"dtoa":11781,"eye":11782,"jzentry":11783,"kqpfd":11784,"kernels":11785,"lstb":11786,"lstrip":11787,"nthat":11788,"oppo":11789,"rendez":11790,"sameness":11791,"samsun":11792,"tparam":11793,"voes":11794,"woy":11795,"##meric":11796,"##filled":11797,"exemplars":11798,"resistance":11799,"composites":11800,"filedes":11801,"withdrawal":11802,"swiping":11803,"scattering":11804,"exposing":11805,"subsequence":11806,"announce":11807,"combobox":11808,"robots":11809,"communicated":11810,"retransformation":11811,"dirtory":11812,"defrags":11813,"##opsig":11814,"consistently":11815,"abbr":11816,"backlinks":11817,"keepdirectory":11818,"analyzer":11819,"analyzing":11820,"analyzers":11821,"cruncher":11822,"reconfigured":11823,"evictions":11824,"microedition":11825,"microseconds":11826,"distributor":11827,"criterion":11828,"wikidata":11829,"cubemap":11830,"spellbooks":11831,"unqualify":11832,"unqualified":11833,"unqualifed":11834,"introductions":11835,"keepclasseswithmembers":11836,"ellipsoid":11837,"witnesses":11838,"keeppackagename":11839,"421":11840,"acegi":11841,"bstar":11842,"doneness":11843,"dontprever":11844,"dtrule":11845,"ecma":11846,"eccentricity":11847,"ehlo":11848,"eocd":11849,"fchown":11850,"fchmod":11851,"gained":11852,"hwasan":11853,"howto":11854,"jla":11855,"jlpl":11856,"jcap":11857,"kmf":11858,"lscp":11859,"lscv":11860,"munlock":11861,"munmap":11862,"mimic":11863,"mimetype":11864,"mindepth":11865,"mindigits":11866,"mibp":11867,"nrtype":11868,"nubia":11869,"ngrams":11870,"pqname":11871,"qnamesrnu":11872,"tmax":11873,"telnet":11874,"tilde":11875,"tilda":11876,"taste":11877,"tasty":11878,"vuln":11879,"vulnerability":11880,"vacated":11881,"vacuous":11882,"wireframe":11883,"welding":11884,"washing":11885,"xchg":11886,"xcharacters":11887,"xposed":11888,"yui":11889,"yuv":11890,"##iags":11891,"##textarea":11892,"reusing":11893,"reusability":11894,"reevaluation":11895,"reevaluate":11896,"coolpad":11897,"coupled":11898,"covariance":11899,"covariantly":11900,"clashes":11901,"colonel":11902,"contextualize":11903,"unspent":11904,"unsplice":11905,"unretrieved":11906,"unretained":11907,"unconverted":11908,"unconsumed":11909,"truthy":11910,"asymmetric":11911,"asymmeric":11912,"checkboxes":11913,"heuristic":11914,"heuristically":11915,"scrimify":11916,"execvp":11917,"mantissa":11918,"trickle":11919,"subcategory":11920,"subcomponents":11921,"encounter":11922,"encountered":11923,"encapsules":11924,"encapsulated":11925,"repackaging":11926,"replica":11927,"replication":11928,"solutions":11929,"linebreaks":11930,"overloadaggressively":11931,"defects":11932,"postordercall":11933,"orientatit":11934,"downgrade":11935,"downgradable":11936,"slavo":11937,"slavic":11938,"physics":11939,"physical":11940,"subtitles":11941,"subtitling":11942,"america":11943,"american":11944,"unprefixed":11945,"sentinel":11946,"sentinels":11947,"alphabetical":11948,"uniformsiv":11949,"upgrades":11950,"upgraded":11951,"throttled":11952,"throttling":11953,"representations":11954,"bsdiff":11955,"overwriting":11956,"overwritable":11957,"destructive":11958,"explanation":11959,"explanations":11960,"unprotected":11961,"unreferenced":11962,"renditions":11963,"abbreviate":11964,"abbreviated":11965,"vetoed":11966,"subcommands":11967,"backslashes":11968,"renegotiate":11969,"renegotiation":11970,"##nonpubliclibraryclassmembers":11971,"024":11972,"396":11973,"4743044":11974,"987":11975,"970":11976,"965":11977,"akidext":11978,"affinity":11979,"australia":11980,"agnostic":11981,"augend":11982,"asterisk":11983,"bmix":11984,"brew":11985,"burst":11986,"bisect":11987,"bloom":11988,"birthtime":11989,"british":11990,"bipush":11991,"banners":11992,"bfacelinks":11993,"billboard":11994,"bfacesfromtet":11995,"criss":11996,"crud":11997,"cwnd":11998,"crawl":11999,"dalvik":12000,"dodivide":12001,"damaged":12002,"dreaming":12003,"daily":12004,"ducked":12005,"ewouldblock":12006,"einprogress":12007,"ealready":12008,"eremainder":12009,"eisconn":12010,"eagain":12011,"eldest":12012,"ephemeral":12013,"efficient":12014,"fancy":12015,"fsel":12016,"ffff":12017,"fackets":12018,"ftruncate":12019,"fpathconf":12020,"gmonth":12021,"gzipped":12022,"garbage":12023,"gionee":12024,"gallop":12025,"gamma":12026,"gendiags":12027,"gobbling":12028,"gingerbread":12029,"hls":12030,"hbf":12031,"hanoi":12032,"hamza":12033,"hiding":12034,"haystack":12035,"honeycomb":12036,"ikvm":12037,"isten":12038,"ilogb":12039,"jaas":12040,"jwk":12041,"joda":12042,"jolokia":12043,"junit":12044,"jelly":12045,"jibx":12046,"khz":12047,"kids":12048,"lzf":12049,"lseek":12050,"landscape":12051,"lacking":12052,"lacount":12053,"lshift":12054,"lgetxattr":12055,"mortal":12056,"mllt":12057,"nmtoken":12058,"olson":12059,"ouya":12060,"oulx":12061,"oecf":12062,"oustanding":12063,"pui":12064,"pulley":12065,"punctuation":12066,"pangram":12067,"pclient":12068,"pmatcher":12069,"pneum":12070,"ripple":12071,"rerun":12072,"rabin":12073,"rainbow":12074,"rlocation":12075,"reregister":12076,"rmdir":12077,"richtextarea":12078,"rhandler":12079,"salt":12080,"sieve":12081,"sallowed":12082,"ssthresh":12083,"tatweel":12084,"tanh":12085,"today":12086,"tentative":12087,"tibetan":12088,"uca":12089,"ught":12090,"uminus":12091,"ultimate":12092,"vanity":12093,"vamire":12094,"vampire":12095,"vavr":12096,"vrfy":12097,"wstopsig":12098,"wtermsig":12099,"wicz":12100,"wifsign":12101,"wxxx":12102,"xhelp":12103,"xhdpi":12104,"yeh":12105,"ymad":12106,"yxz":12107,"yellow":12108,"ymaa":12109,"zigzag":12110,"##multipart":12111,"##youkeeping":12112,"##wrapper":12113,"inplace":12114,"innermost":12115,"consecutive":12116,"conceptually":12117,"conjugate":12118,"rechunk":12119,"relocate":12120,"reinterpret":12121,"reauthorize":12122,"##ametomib":12123,"btetralinks":12124,"isolate":12125,"isinternal":12126,"isbdigit":12127,"degrade":12128,"dehexchar":12129,"deceleration":12130,"tolower":12131,"examples":12132,"enotconn":12133,"adjective":12134,"resubmit":12135,"choreographer":12136,"chinese":12137,"christmas":12138,"lollipop":12139,"getsockname":12140,"anagrams":12141,"formpostmultipart":12142,"metacharacters":12143,"onclose":12144,"keyframes":12145,"shorthand":12146,"douglas":12147,"newpairs":12148,"ideographic":12149,"untrusted":12150,"unscientific":12151,"unserialize":12152,"unimplemented":12153,"unpruned":12154,"unvalidated":12155,"unfulfilled":12156,"unrecognized":12157,"unannotated":12158,"unhappy":12159,"unconfigured":12160,"unconnected":12161,"untyped":12162,"unterminated":12163,"indeterminate":12164,"compensation":12165,"compliments":12166,"confusables":12167,"conformant":12168,"treshold":12169,"seperating":12170,"sezpoz":12171,"inflections":12172,"obtrude":12173,"obscuring":12174,"linethrough":12175,"outliner":12176,"thawed":12177,"thymeleaf":12178,"transposition":12179,"checkfpx":12180,"sprintf":12181,"stringliteral":12182,"prepostition":12183,"preinitialization":12184,"pregenerating":12185,"disassemble":12186,"disassociate":12187,"regarding":12188,"scavenge":12189,"multitouch":12190,"decrypter":12191,"deconstruct":12192,"recaptcha":12193,"recieved":12194,"placerholder":12195,"quotations":12196,"oprops":12197,"manufacture":12198,"numerals":12199,"numverts":12200,"impossible":12201,"implications":12202,"imprecise":12203,"suballocated":12204,"encrpyter":12205,"removeleavescall":12206,"orchestration":12207,"lenovo":12208,"intitialize":12209,"boggle":12210,"flavor":12211,"flakes":12212,"symtable":12213,"syllable":12214,"memcopy":12215,"memleaks":12216,"floordiv":12217,"floydwarshall":12218,"linefeed":12219,"retweet":12220,"perpendicular":12221,"##ideeffects":12222,"overshooting":12223,"usemargins":12224,"useuniqueclassmembernames":12225,"refernece":12226,"defensive":12227,"labelpaint":12228,"whyareyoukeeping":12229,"byteaddsub":12230,"entitlements":12231,"entropy":12232,"emphasis":12233,"assumenosideeffects":12234,"printconfiguration":12235,"allowaccessmodification":12236,"synonyms":12237,"nonapplicable":12238,"nonnegative":12239,"afterwards":12240,"renderbuffertarget":12241,"incognito":12242,"absorb":12243,"abnormally":12244,"abecedarium":12245,"instanceofed":12246,"dexmanifest":12247,"webrtc":12248,"webflux":12249,"simplepatternlist":12250,"skipnonpubliclibraryclasses":12251,"forceprocessing":12252,"quantifieds":12253,"unsatisfied":12254,"unsynchronization":12255,"preprocessing":12256,"topological":12257,"fdatasync":12258,"sortaxis":12259,"mergeinterfacesaggressively":12260,"embiggen":12261,"miscellaneous":12262,"redelivery":12263,"basictz":12264,"autoincrement":12265,"autocommit":12266,"autoconfigure":12267,"metafactory":12268,"superfluous":12269,"unmarshalling":12270,"unmetered":12271,"firefox":12272,"csdomain":12273,"hiragana":12274,"unparsable":12275,"ignorewarnings":12276,"underneath":12277,"understands":12278,"atomikos":12279,"dtmxr":12280,"psubscribe":12281,"tunneled":12282,"sidepanel":12283,"undelete":12284,"undelivered":12285,"undocumented":12286,"sinusoidal":12287,"epollrdhup":12288,"cardinality":12289,"flattenpackagehierarchy":12290,"unexpanded":12291,"renamesourcefileattribute":12292,"autowirable":12293,"dontskipnonpubliclibraryclassmembers":12294,"superscript":12295,"rttvar":12296,"dematerialize":12297,"demonstrate":12298,"xcrunwrapper":12299,"ldividend":12300,"chronology":12301,"sysctlnametomib":12302,"12551574":12303,"xslns":12304,"goodbye":12305,"incorporate":12306,"circumradius":12307,"qsufsort":12308,"keepparameternames":12309,"rendezvous":12310,"samsung":12311,"dontpreverify":12312,"orientatiton":12313,"47430447":12314,"bfacesfromtetras":12315,"wifsignaled":12316}}}